convclip_1_param_0 7320.821777 71.305588 98.640686 297.457123 811.572327 395.176727 81.037201 679.763733 77.616463 27208.498047 172.908203 623.401733 69.411026 89.139198 18585.775391 20191.068359 6916.280762 40699.863281 168.677582 321.079803 325.436432 916.509277 43.670322 33091.351562 460.681519 76.943489 488.467041 258.781555 277.693268 209.958237 136.323654 676.187683 
convdwclip_0_param_0 174.877716 55.227814 21.271269 25.018547 29.029844 17.002577 32.919456 32.277477 38.626411 12533.394531 110.895111 30.729671 55.000267 92.710335 18598.974609 14342.155273 1198.717407 5454.795410 26.836473 38.911030 36.821362 92.195389 115.173981 8553.652344 49.723927 25.337141 5.596896 85.815048 101.043755 767.797058 69.185844 48.968685 
conv_1_param_0 199.143463 225.697372 218.273102 197.991028 205.972046 260.719574 167.975403 223.195389 188.313538 191.291977 191.700745 233.655151 333.019806 264.272675 171.534195 366.558807 
convclip_2_param_0 104.053619 119.221634 596.170776 474.144379 1366.270874 455.972992 454.461304 172.440659 189.350937 254.221863 230.482468 418.241913 492.814972 736.996704 1310.120483 202.647659 437.110352 426.077789 402.463806 799.519958 528.508057 481.223785 336.642090 270.321381 345.595032 366.483795 1204.222412 630.383545 324.893433 344.177826 155.976669 1227.733398 649.759521 252.239090 246.645706 742.783081 318.504730 483.674744 409.351501 162.728500 180.074173 259.866608 1169.355103 334.758270 567.505310 151.559998 696.262512 699.827820 856.418396 588.873596 491.302673 262.851227 234.345718 136.870148 334.732330 373.994843 101.041946 601.147278 462.875793 428.338409 303.435059 247.948700 1201.361816 845.418640 133.721024 1029.728638 780.370544 313.566925 236.179855 272.283142 368.140411 253.148544 1765.344727 373.992188 778.401184 438.835602 627.142151 188.818069 607.694763 255.007339 229.797806 643.926453 864.290405 167.593842 488.541748 102.935951 700.147888 162.941422 426.815430 1774.756348 340.199341 264.408844 111.078125 160.485641 336.054871 403.887787 
convdwclip_1_param_0 360.824158 444.712372 130.528824 233.907837 102.428070 184.469345 320.022675 222.931046 429.384613 111.482849 234.086380 284.182251 135.360275 113.951073 59.766323 256.171814 74.255775 220.828979 203.498077 203.264587 222.650894 108.454201 138.868805 92.007683 215.490433 340.606506 63.255585 40.188709 420.212585 367.933533 295.172913 73.051277 92.596588 648.881226 499.300781 97.681221 326.668365 150.007629 192.904755 668.445618 379.796692 431.153107 79.437347 201.116364 114.850685 525.671875 140.611710 107.701294 63.526928 133.043030 25.795570 823.026123 171.399994 419.559418 285.099426 138.212036 1762.964966 224.163177 165.007263 277.507111 301.686157 350.021088 134.412689 122.135620 292.767944 102.445900 76.529289 355.440979 347.758270 301.341797 288.940979 199.967255 43.203037 190.858871 211.019760 462.842285 160.660934 640.691650 149.467850 372.565002 116.090729 311.891876 197.754532 805.449829 346.486908 701.093140 48.099663 670.677368 251.433014 55.562832 228.999603 158.645615 1228.718994 554.758728 411.251526 213.077759 
conv_3_param_0 305.388977 314.235107 277.222015 352.828339 368.260529 438.222992 348.202820 288.704956 235.380890 345.272339 283.080963 212.511841 239.713699 286.109619 238.893845 202.671829 201.476761 253.329422 266.214172 335.438629 300.239746 303.061371 330.028351 309.766174 
convclip_3_param_0 190.338699 1648.705566 376.959076 249.218582 671.710449 332.218536 718.412231 382.740936 677.950439 443.686432 606.660767 253.092514 747.551941 365.181519 530.950623 144.597656 872.273132 356.574005 771.941040 1208.319946 717.995239 939.429077 501.764221 139.790695 770.196350 753.945557 171.481277 522.575928 761.998901 564.837341 672.875610 1303.834839 222.572037 166.110855 739.538086 264.102661 259.200745 434.307495 418.178284 456.264893 284.803223 982.908813 881.051758 673.103027 797.325500 559.446777 1230.443726 785.245056 368.527161 220.334045 301.403229 253.170441 962.795837 894.873840 1351.109009 2393.149658 773.454651 322.473846 232.399475 853.103149 447.836365 281.646454 328.291321 425.682922 227.799164 112.725266 139.961304 879.907288 801.445007 848.698181 850.133667 128.106064 741.272156 1098.114746 345.219086 767.451233 257.075958 184.209167 259.384674 984.302551 295.126709 1377.238892 226.732880 5549.586426 932.416992 907.567200 165.765778 1102.280273 540.362854 991.154846 659.012756 1138.198486 231.009369 740.706604 270.179474 570.075195 390.453796 686.547424 116.582047 518.123047 536.052185 318.741974 459.830597 475.144257 363.629517 283.326172 1377.863892 807.258545 365.266724 475.720764 1939.897827 353.996765 682.781982 199.651245 412.719879 1064.637207 428.563599 522.813538 385.270020 245.624207 1057.831543 851.474365 998.031738 1234.527588 685.445435 681.093323 291.831696 429.109344 1092.673584 314.035675 860.107666 526.064209 146.950150 457.188934 762.668762 908.685608 1098.883911 639.711304 1135.395752 558.848267 263.195984 660.718689 869.408020 433.424561 
convdwclip_2_param_0 194.106079 33.808830 265.947021 156.469940 55.925064 139.681686 55.071262 143.941406 53.702274 93.714859 64.257225 210.958817 140.610977 83.038132 93.552177 216.607910 116.869492 130.380539 76.272964 43.878708 72.149666 38.406738 113.830673 233.110275 32.390469 38.082008 202.703491 95.440147 111.280106 72.752533 96.586586 85.781090 84.806213 119.202797 47.339672 154.101166 134.585434 138.073242 29.608030 39.247299 131.133453 55.409966 56.632126 104.105110 54.003487 103.549873 48.168869 78.302567 154.733841 158.278320 291.968170 157.156097 56.514389 75.179771 68.331802 6.837547 46.810768 138.748901 554.366943 85.460846 126.477463 301.971375 466.740326 149.203949 139.259628 207.892410 258.216309 44.976105 70.447487 56.727112 90.889557 202.179672 83.298470 54.717197 229.774200 72.424683 191.140884 139.403152 268.570801 108.437172 254.306564 77.698311 333.069763 3.710318 51.334450 46.534508 224.541245 52.550835 103.496628 84.644737 37.130650 69.023888 209.893570 64.024651 275.643707 95.558266 118.638214 70.218132 113.878624 129.242722 67.895599 224.848953 102.681557 116.648933 282.725525 103.081146 71.009773 64.118767 110.905045 96.337250 98.534294 121.455070 82.491058 137.863739 53.535366 47.181526 230.496597 90.911003 96.980133 158.619064 75.586960 208.064026 86.806389 31.984690 89.011551 65.639435 122.059059 86.189751 41.070896 74.230728 76.525497 84.804901 134.915314 66.504356 74.508560 60.478416 40.042332 126.728325 55.342392 204.512329 133.537750 179.959579 8.214588 138.170944 
conv_5_param_0 232.332169 220.996109 231.770660 308.041626 205.688339 220.935730 214.577469 355.261841 352.191071 266.194855 185.543259 250.172760 239.441879 217.262619 253.946869 337.084137 365.786804 206.755768 363.596588 372.603912 362.201172 201.312195 227.557434 169.440353 
convclip_4_param_0 559.260071 1338.706665 549.856079 1463.959106 227.341553 382.568207 777.916992 384.149109 646.138000 378.498474 786.139465 739.618042 665.148499 413.656281 543.069885 899.509399 272.177155 500.664978 284.742554 646.621826 627.754089 1038.887207 651.433289 728.404053 418.048370 1671.503784 1368.556274 643.367615 580.882507 772.005493 822.144470 379.079559 1511.519531 748.680847 513.279480 560.455383 277.506073 374.651794 398.934052 576.991638 629.210693 451.084930 733.509399 637.522949 405.889343 417.446014 1058.884399 606.279236 643.636597 540.852417 351.990509 264.986053 214.428574 570.816772 335.487671 1487.768921 1035.590576 832.409363 710.484802 2206.018799 356.735229 369.593353 2246.321777 2023.519775 1071.162476 577.565063 314.371216 637.906372 511.316559 646.486694 1274.076904 468.666901 613.297974 531.909790 730.012756 296.505646 869.735657 378.431335 934.903625 1305.154907 344.623627 1362.434326 1576.915771 575.613159 1070.242676 1445.448242 2097.748291 571.900269 501.182495 859.970886 511.649200 360.489471 1256.474121 670.652039 845.067810 1298.384888 1050.103516 1007.613770 1268.273926 557.488953 601.209351 3581.722412 763.371277 489.725189 795.525330 498.718536 1177.223145 1772.259644 1423.941406 423.658844 1556.676514 396.780518 822.847900 415.867493 1162.444946 2536.400146 770.952820 616.379944 1809.525269 1186.857056 2048.209473 462.349030 2094.154297 669.461792 619.022827 631.974915 856.062317 496.398834 1987.356445 338.644440 485.477417 2270.437500 528.784973 441.171570 1198.160522 1574.631348 712.977844 567.859375 225.086121 935.745361 1599.220093 342.680298 321.938538 500.566284 
convdwclip_3_param_0 305.416199 84.772186 360.360168 217.624252 794.271240 387.605133 296.229584 383.766235 328.507660 431.857880 217.240936 163.038849 225.672577 197.392883 337.760498 169.894272 572.271729 569.809937 351.062561 246.357712 213.727020 188.922501 141.367294 200.402649 187.537796 139.993057 86.809700 556.612549 246.774689 187.185349 322.410156 445.566833 172.129868 209.100372 149.838150 326.630280 463.711975 783.482544 359.765839 185.104385 202.962799 311.787628 207.699265 343.371124 249.818314 602.510620 264.152710 218.150879 129.935974 239.895844 448.027771 741.317444 389.357025 178.575134 645.062317 125.907082 100.744507 353.234741 233.377548 95.857185 457.861633 604.514343 83.001099 93.472977 97.079903 266.306061 871.209351 223.139587 173.569992 149.105087 318.894989 322.581238 179.748489 513.208435 101.388611 475.670624 233.769836 333.295959 111.573982 147.292313 293.584869 96.046494 129.211411 180.380508 256.486053 119.526619 148.428940 232.907089 191.901917 117.076004 208.896439 501.094971 133.756088 139.636642 127.341408 149.943863 318.015259 130.591476 204.353653 372.193726 207.675461 59.035355 291.462708 423.219788 199.107574 200.097488 191.655823 107.142899 121.181870 395.312347 166.497849 370.933289 72.815010 552.005127 132.397461 115.892868 254.974762 351.412415 112.172966 229.964447 91.782852 405.665710 109.685692 295.981781 366.366333 169.704819 199.137558 328.451752 144.973190 438.458679 469.245728 85.507507 303.039703 409.145935 247.861328 141.296768 487.932983 162.431030 475.105957 285.295441 226.015381 402.763489 741.956665 211.017380 
conv_7_param_0 307.123840 259.509949 247.532196 448.570099 345.347015 186.530640 368.364349 342.093903 402.083038 296.898071 382.677094 285.068878 295.352112 351.804962 313.665131 347.893860 410.082153 356.450714 314.360687 355.961029 373.352875 395.700165 399.683594 351.786377 293.072815 346.401581 450.151520 432.800446 393.049469 373.671997 357.147675 371.841125 
convclip_5_param_0 1059.448120 624.006348 1047.331299 478.922913 813.014099 1093.398926 1143.485352 805.083130 4640.313477 600.353760 1005.735962 705.384583 1548.065186 1251.405640 737.762817 456.738922 650.780151 1540.307739 374.426056 1432.523682 1802.149170 1278.661865 547.852234 1187.844604 1085.354980 1433.642334 21028.576172 1080.297485 998.354858 714.159424 537.710999 1128.333252 661.674744 821.924133 1412.667358 1675.799194 1945.138794 921.562683 1220.848755 851.764160 926.615173 1358.552246 1969.081299 1200.892334 357.187073 1565.854492 856.056396 1402.115601 1961.274414 980.124512 1183.672363 1211.597046 1334.651978 1273.352051 1351.466919 1798.096924 804.007996 466.085144 897.907715 1277.973267 1323.536133 564.722046 950.782593 1447.554810 345.577667 1133.000732 816.842224 1651.299561 230.233719 457.518738 1592.392944 622.722107 467.384369 879.064026 461.808258 1728.923950 807.503845 1202.278931 925.376404 1005.666321 574.522583 477.724030 285.528137 1827.692749 216.555557 521.718628 1803.266602 723.417175 583.920044 1585.977173 180.241455 1064.833252 1236.765747 1544.521606 627.789062 387.658691 1193.423950 1535.098877 1227.242065 959.635437 583.164368 1201.194336 1571.769775 776.459717 1176.028564 587.354187 499.695740 1008.497986 988.481934 821.608154 1249.301147 823.282532 635.233826 929.870728 967.990906 916.368042 427.655060 1246.003418 777.639282 1171.720581 943.986084 1028.081909 253.146255 237.522034 698.195618 1047.864502 591.409302 868.222351 1233.951782 714.652893 1400.042480 1867.257202 1074.951294 1973.842041 1231.687744 798.331848 1344.559937 894.098022 785.538696 2186.430908 1252.318359 277.411621 472.873840 2173.547852 1455.509399 280.093109 445.832031 1392.404541 1254.734985 1108.386597 1890.243408 1221.653076 742.168579 1173.317627 1003.558472 685.972107 678.458740 1649.441895 1017.139465 859.175293 422.506744 1161.897339 1945.337158 1050.613037 693.488708 815.107422 291.382812 492.433990 989.429688 929.429077 1006.991760 713.376953 408.427002 1651.073486 873.992249 950.281494 2415.407715 946.781067 401.393860 940.772278 617.028320 965.680725 874.277588 1343.842896 1201.188965 1071.763306 2115.741699 1548.901489 1674.568481 456.343719 1387.802368 308.623688 
convdwclip_4_param_0 65.198067 189.083054 139.001984 305.672516 59.714165 66.061882 91.740089 158.128708 15.504483 28.958166 76.608742 46.934010 55.237003 122.137329 66.586151 110.044678 64.502708 83.244667 209.571075 59.220478 65.446251 31.615166 64.366196 71.188583 151.864731 56.078053 17.998068 124.183586 62.695732 131.866028 417.821747 65.772392 30.852764 56.216427 83.315071 75.866005 79.731529 41.588284 122.278244 124.254074 166.262009 35.374298 44.505280 146.104630 195.359650 125.701286 56.560036 72.083229 57.210407 134.441788 115.933975 74.320702 124.436874 768.625549 78.476646 58.527390 88.339851 72.248840 107.347839 124.990128 57.361790 76.516289 73.010536 89.446640 161.720123 123.642830 109.122498 108.304131 197.582642 71.856316 49.924721 72.622459 313.013397 318.703186 165.837341 62.519894 96.301117 101.174751 178.247650 82.122574 159.154526 457.961853 283.323944 32.934368 316.802063 231.712234 188.448853 208.122116 229.179214 70.498032 397.273376 22.043121 66.436249 53.635300 243.652100 338.354034 61.288357 49.789379 113.352852 104.623619 128.236282 85.393944 116.116081 125.165596 45.329201 407.923615 464.711975 102.259483 49.193718 70.100777 175.660294 125.985924 184.744385 132.638840 110.894760 146.632294 103.665672 113.314209 67.904213 87.516586 121.082695 53.125965 330.649231 165.067993 58.062267 174.635971 277.360138 59.205650 125.282463 109.734352 74.990868 60.913811 91.472404 64.400497 84.812073 48.764595 61.184753 96.465034 69.105240 102.719818 144.184753 354.686920 202.790314 64.631767 84.014397 274.326355 173.013489 70.761307 114.109673 78.167015 55.229809 60.648766 170.966019 57.744724 117.970535 248.454575 49.195133 78.523499 85.466423 145.579605 110.030663 49.443974 32.001923 48.660618 97.619072 118.534355 579.724182 90.557724 51.207623 57.256233 95.609055 49.250408 89.266556 33.875660 121.086121 82.187431 55.977180 31.235533 278.059296 81.535599 53.431004 126.649261 113.721786 85.203987 76.277214 47.286697 70.792297 57.659668 80.777756 163.803955 66.626129 274.262299 
conv_9_param_0 440.957031 449.623505 304.414459 365.052795 236.776810 341.037750 395.340424 246.247574 422.985931 284.634491 216.649170 429.568268 470.327271 257.025787 377.361023 276.859039 227.000137 363.118286 401.810577 256.207611 263.749359 692.966797 405.536285 229.426849 301.851990 426.324677 299.522064 349.565460 432.269318 211.332413 291.791626 243.295822 
convclip_6_param_0 1665.093140 1409.866821 3392.292969 2633.258057 1001.837463 1174.022949 41369.304688 380.374115 913.644714 2279.391113 976.633301 810.662231 480.057343 1633.775024 908.697021 1334.859863 593.392761 1218.810059 514.874084 600.353455 1521.913452 363.510834 405.519714 1309.065674 991.443237 570.671509 865.750732 1025.662964 666.717590 1438.671265 720.947388 892.198181 1267.892212 531.357422 1562.626587 875.780212 752.771729 379.080322 778.251526 2375.738525 1216.159424 762.486450 2006.279663 2544.061279 705.983215 762.769531 1862.056763 353.314209 1195.858887 543.856934 802.258423 555.935669 612.738586 469.438477 1541.380005 1062.109741 1256.734009 1506.390137 913.783875 681.496216 1143.952515 1477.546509 1980.178711 771.260376 742.013367 3732.183594 1398.601318 726.121399 356.349365 1843.414795 310.596893 376.215668 1059.807983 950.343994 452.694427 1550.682495 5316.246582 1100.028564 1810.329102 885.658325 1942.929321 420.342072 1418.871948 1021.569519 1043.435425 1138.281372 1287.038940 1672.572144 1410.509644 413.788849 1747.439941 1378.620605 843.075317 412.581665 1592.276489 3878.412354 764.210815 583.443665 763.872559 945.245300 773.601807 1119.745728 1222.166626 1049.372681 565.289368 1894.517578 996.960815 1178.135986 2008.502808 928.509094 916.902466 906.874634 707.319824 1457.549683 891.508423 1647.591919 1573.194824 2329.605713 1540.659302 2423.232910 1158.618896 1151.216309 1066.784424 2395.010010 1338.666138 1593.546021 809.633057 1018.656067 889.740295 1113.918335 1419.708740 2329.723389 611.109802 1228.618530 676.166199 1022.358826 684.975037 620.100708 1948.906860 7508.154297 797.725586 1715.697998 1022.322083 964.679810 1402.177002 1558.546875 1787.642456 631.086426 1443.848755 2413.136963 567.469788 1425.799683 295.557312 1390.728271 903.254944 575.778625 768.497375 409.718658 1079.263428 1085.383057 1883.190308 1141.316040 620.720886 1045.829834 810.791931 1332.525635 1029.758667 1093.363159 643.530579 1106.623657 1011.986389 1561.822632 968.472961 767.044189 1029.835449 812.784180 2058.331787 801.471313 697.023193 1225.924072 639.474670 417.974457 1244.447144 479.877594 214.178116 1356.589600 453.387085 1492.649170 309.118622 496.139252 540.460266 1323.899048 
convdwclip_5_param_0 102.463112 104.976112 42.050964 33.585373 336.060425 158.568451 3239.203613 422.362579 112.855545 63.775913 123.188835 91.627708 124.832901 142.051819 155.214096 139.236145 110.155548 64.392319 247.551636 201.177078 85.563629 173.175339 271.611908 89.769508 77.119026 195.407196 99.343628 174.629745 134.619522 127.616394 236.152252 139.393585 138.972336 552.690430 97.012939 88.978088 61.727657 228.767853 254.152359 84.873703 95.372154 187.149933 58.978672 52.446491 173.017776 264.959442 64.306541 172.708664 111.821892 279.482452 158.117859 95.717690 278.732666 218.216873 103.783348 142.710724 129.225601 97.416199 129.863266 161.593140 74.704613 56.325336 45.342346 175.020737 323.312469 35.300259 176.105331 339.939484 272.235779 137.396698 182.469681 446.734406 63.112282 48.648758 179.005280 59.224773 25.246874 244.059174 110.473305 146.271484 48.286289 302.102325 113.929688 89.117722 107.140419 279.640564 133.057098 95.645546 104.378098 309.311890 113.040764 69.286064 131.011017 220.315887 37.390488 32.258709 91.699867 328.596405 47.857746 91.320801 235.124268 199.000458 122.949196 26.600367 297.293518 99.641045 123.175781 58.185139 80.341934 77.354759 83.293114 243.059525 183.167801 105.342278 96.201859 119.413185 76.843933 49.694683 34.032124 28.498194 132.706863 120.164757 100.403931 75.873421 112.965652 71.841156 194.696579 62.777851 271.752350 77.147087 69.108032 72.624634 89.291626 32.772003 186.767136 118.169579 93.349594 139.187546 46.765987 32.044975 93.071777 317.698883 81.317345 189.084152 93.478806 114.749748 124.632919 331.682709 110.213913 65.412643 113.021454 71.775070 540.760986 67.324104 128.863144 26.101248 235.617157 264.480011 73.307404 77.807991 92.905731 93.283096 152.611450 35.473522 249.810944 97.523300 176.485718 166.366882 171.171127 56.201786 104.418526 49.756447 132.442978 120.845604 60.887917 69.554962 55.775238 94.883789 219.241837 121.097473 216.097122 247.243240 106.852249 304.191162 520.467346 94.668175 288.623901 146.458054 222.593719 254.856750 75.999939 101.293304 
conv_11_param_0 346.248932 447.751892 267.984955 430.498749 272.466949 265.026825 378.299622 353.132050 440.459381 209.117050 244.048141 534.119019 267.790070 315.929840 282.725494 291.380402 294.791534 255.369110 395.044952 204.978821 274.785767 373.283264 342.026581 284.065399 302.259003 322.209991 244.538544 315.253113 373.079498 237.285538 311.673035 264.684082 
convclip_7_param_0 939.524780 713.212341 908.543274 912.227783 1561.177002 2257.559570 1544.331909 679.912842 704.941101 1047.273560 1162.349243 586.380676 868.159729 646.020386 1227.608398 1283.261841 741.209167 983.243408 1237.336182 443.543304 653.352661 777.119934 2688.791748 831.646484 523.378967 1375.791870 975.367981 938.846863 1266.751343 1329.325317 523.442505 278.893372 1005.356567 449.997406 1147.795654 1255.150024 1154.618408 1040.563110 919.424561 659.433167 1121.235474 2057.387451 1777.245361 580.629517 1428.625977 691.479797 1559.765869 983.461365 1710.412476 1788.306885 666.431519 540.963806 515.379028 2578.914795 332.456299 1645.032837 731.797729 1111.089722 1126.557129 888.674988 466.854950 1246.113770 1029.442627 1195.443604 437.915283 713.771484 918.094543 1026.940063 865.550598 14462.840820 543.112549 890.258606 784.170532 435.357849 1001.551758 1190.193726 2763.920898 592.890686 4326.816895 1093.031616 708.877991 930.666687 1265.762085 1375.481689 384.898407 1350.352783 1237.320190 1112.776245 919.015625 770.778687 909.769714 621.556458 874.271301 1276.610718 1042.294067 952.835938 1219.900024 222.182083 985.221130 458.630035 664.095276 1715.890869 1377.501465 539.727478 1213.585571 1014.460266 427.947052 1567.245728 637.885925 448.724884 1704.559570 703.656982 410.513702 1135.382080 981.979675 752.002258 839.329285 1136.961670 436.102844 955.036499 785.449768 884.333374 1233.485229 1389.406250 806.680908 656.022034 1299.406128 895.626038 493.814240 524.112854 936.886902 1133.383179 1045.909912 364.149017 631.644165 1826.174683 513.825073 1193.848022 926.851257 2745.386230 1228.415161 1556.027100 1976.307617 1163.416504 702.915161 785.361145 385.075775 462.343109 1276.388062 1667.451538 847.076599 676.734192 31481.789062 780.504761 1537.380371 555.423035 1474.446045 650.881409 522.916199 639.996460 897.796143 723.687744 1397.895020 1428.018311 342.801453 638.214905 953.369507 828.925110 419.724304 470.083618 1025.475952 1692.106323 1608.454224 984.908447 909.877258 788.653137 723.433411 647.586060 660.385925 629.171204 1380.063721 702.548706 594.824951 1433.491089 847.858459 951.825195 1009.933228 1208.058228 744.986084 828.983521 1080.722900 728.899475 
convdwclip_6_param_0 170.752853 190.615295 171.039963 124.575676 242.258865 196.521561 146.637604 320.097137 420.043182 214.749680 215.315063 391.282654 330.201385 408.797791 300.490692 103.351212 431.315552 155.135910 202.620392 429.400513 248.088516 337.826202 207.818893 101.041588 411.716461 147.485123 288.529053 170.341034 124.886665 84.490860 720.196533 522.319153 148.231155 702.047974 120.840385 132.080917 192.254669 137.920395 223.670990 512.796936 302.504822 130.362717 62.187088 280.682129 136.314362 254.343216 91.458366 137.575104 235.063202 198.578674 372.065765 363.292725 388.893280 144.761185 632.668945 243.714355 518.392822 101.561317 225.830734 309.560211 534.840942 194.114090 162.478683 102.198524 732.764282 322.566132 227.010574 246.379395 232.658539 23.932999 223.705093 345.019409 187.924026 953.832947 167.096176 281.236298 169.931610 283.588379 89.421310 96.561028 369.354858 184.054886 144.082962 148.798462 606.580322 263.490021 239.304306 200.374802 271.579620 253.934860 250.151443 380.450989 275.381592 138.313843 229.376633 230.490067 199.703064 563.420776 82.238106 431.153625 208.242477 182.178909 123.537903 377.127777 184.388245 172.848206 732.842041 271.969818 385.857361 516.177551 268.178864 441.943146 670.164551 465.637085 200.866837 350.294678 419.636017 214.972458 472.546051 96.300819 292.049988 181.390778 169.064865 179.056671 359.042053 337.394165 400.775574 411.051239 422.079620 353.205231 212.152298 199.416656 264.540283 810.292480 436.646484 187.566879 420.154205 228.439774 269.816162 101.325935 276.097473 153.470825 162.254898 160.878296 363.356476 269.930450 555.317139 391.386597 89.458946 170.986053 263.171417 341.879425 8.828908 254.601105 203.526169 334.246948 119.456062 216.039825 917.064880 569.935913 218.691727 112.548744 123.626472 160.529617 1008.656982 214.201202 105.390274 259.308258 746.647339 682.849976 239.928497 172.627975 143.286942 225.653244 350.810211 197.155563 179.202759 245.680511 257.485779 764.833679 141.239487 105.307915 378.427124 177.586563 375.409546 391.574615 225.977188 129.881393 372.418243 378.319183 221.646851 369.170502 
conv_13_param_0 502.582245 301.618317 414.658875 519.924683 348.691223 386.205292 497.725586 354.474884 411.015533 472.901489 353.736786 445.134003 378.307556 363.761871 413.191925 422.950256 435.364929 370.954742 492.098022 323.403473 323.887177 334.595215 368.998260 408.885071 447.917084 569.568665 446.369751 294.562317 693.998657 405.344879 486.308777 391.246216 428.932617 474.827179 544.256042 324.469299 446.534271 375.043213 405.039185 367.376587 422.144012 347.587830 458.239929 373.610504 469.642395 368.699036 377.024323 359.379944 386.405334 326.009399 472.649994 879.704529 404.587036 409.508179 322.480835 468.142365 396.139313 413.730438 466.964294 567.951599 487.467529 411.406982 302.277985 424.387970 
convclip_8_param_0 1483.687622 1105.574951 2028.950806 2362.870361 1343.773560 1513.503784 1733.307739 1102.089722 1742.690552 2232.595459 1303.390137 3131.905273 2505.989014 403.730835 1236.307983 522.637634 711.722778 7793.148438 1411.978638 726.461975 513.378784 1003.835083 1360.181763 390.907288 1543.168091 713.060059 445.875854 1846.687866 1446.858521 912.902954 1100.703369 2114.317871 450.931580 291.553802 640.967285 451.326294 726.124390 599.311768 1662.258301 941.506409 489.001678 2739.508057 1839.720581 1499.024414 1129.932739 659.411743 1015.445496 1220.281982 1031.311768 1427.519531 918.797668 1199.094116 2436.291992 838.301453 1192.361938 1370.922485 1191.242676 1471.014038 1749.713867 1125.524536 1621.209961 1245.312134 1043.076416 2202.219727 1736.059326 763.934753 1684.522583 1789.579346 8706.344727 1763.791992 1364.651855 930.189697 8533.545898 1591.103882 815.941345 1576.799438 1061.600586 1572.250122 988.990051 1733.085083 1158.066650 1170.752563 939.798157 1842.989502 2262.132324 457.678650 640.995728 703.735474 1237.831665 1430.223389 2606.151123 2675.727295 817.623535 1337.597900 19917.265625 789.733337 809.352112 2003.020874 989.928589 613.890808 651.356812 1231.579224 800.457031 1479.306763 1457.556641 1450.075439 1471.464600 819.824890 9120.379883 362.217499 824.641724 1870.751099 468.970703 2323.603516 609.556702 1639.806763 1821.836426 2558.512207 2344.949951 1412.602539 458.218964 1787.648071 1205.735840 241299.578125 981.539001 635.106201 1814.110962 888.051147 1538.596191 10402.063477 917.373718 1164.587524 1222.714478 423.264862 898.707397 1652.540039 1901.606201 1754.423706 2538.486084 991.256775 1811.072754 1500.558594 1156.325928 2084.581299 1169.187012 444.568939 526.006104 680.486877 1149.035645 1336.799316 552.934814 428.585815 865.098206 636.352112 1530.301636 1032.617920 1213.881104 696.659302 1132.379639 1426.420410 1881.315918 1486.299561 1332.154907 2606.107178 1510.996216 418.720673 1151.314575 2488.507568 1523.099854 598.946716 1983.485718 720.266174 1702.555054 1456.148926 1579.444824 679.064758 877.879456 467.975861 1705.740234 718.632019 1441.634644 1502.698120 1461.944458 1145.651489 2035.706543 1397.613403 1370.172363 2313.674805 688.635620 1719.260010 1633.086548 630.615479 1186.457397 1926.301514 749.997864 1605.473511 1483.840210 762.369995 480.685150 1263.875000 660.498535 2045.067017 1880.454224 1690.176025 986.971741 1200.399780 2488.743164 868.813110 19926.416016 1196.700439 1665.470093 1011.785034 24341.347656 957.158447 698.104004 3257.479248 683.355652 2244.940430 511.130493 1700.603271 5061.547852 438.227142 800.387024 1399.218384 868.247620 1758.956665 2791.994873 417.511902 24966.933594 1733.297485 1700.192139 1525.478516 1616.693359 641.563599 789.439636 910.992981 1616.032104 1620.841064 905.895874 1294.644531 1048.764160 1742.437500 862.440918 1208.235962 1086.742310 569.727112 1532.846436 919.121643 1948.531860 1423.981445 2821.700195 1332.620483 1605.709839 1828.766113 641.738037 793.898315 755.918152 1114.331909 1389.062866 642.186646 1643.041626 622.137756 1604.976196 1735.617554 681.873352 1444.324341 1423.782349 3053.000732 1144.021118 2007.869507 372.980225 2205.987305 811.703125 1143.240967 2165.959473 663.649231 2116.871582 1141.475952 1961.899414 1134.138428 529.327332 2149.777100 1731.220947 3184.974609 1101.674561 1920.171021 1490.538452 2718.040771 5851.715820 1628.619995 1342.828369 2183.152344 1209.909668 1661.584961 2773.420410 1709.476440 1376.553345 1810.807251 880.773193 625.919373 1048.691162 1182.209229 1820.655029 2522.353760 1014.456787 2916.210205 2565.681641 2091.546387 832.349548 921.118103 1859.165283 461.778931 665.256775 2414.693848 554.028442 1022.180786 1429.634033 1742.503052 867.590271 1294.830933 1952.832031 923.173706 1189.246582 1474.811523 1297.694214 1392.505615 607.621338 2047.725586 1890.380493 2390.495361 1456.745972 865.801086 300.070892 626.912415 1752.842285 1322.159180 546.689514 1837.149658 1357.580322 1130.000977 1211.695923 13872.320312 1860.441895 757.362793 770.732239 1860.668091 564.781799 474.862885 1086.998047 767.088379 652.401428 709.761658 1403.446167 1140.637207 752.241394 533.121704 1448.529663 1576.784424 1598.037476 474.220825 1432.500977 1262.563843 1593.534180 1012.750061 977.564270 1735.857666 490.355377 761.381714 1635.835571 1499.979980 1565.552734 1301.284058 1682.758423 653.743774 11890.081055 1924.728760 632.976013 859.813599 1989.759766 1378.630127 1217.716553 543.407288 1115.222168 487.545288 
convdwclip_7_param_0 95.853523 176.257019 167.749466 38.102787 106.551483 53.997692 88.706627 53.611851 137.592499 3989.660645 116.146919 41.196568 109.800659 248.120514 85.688278 276.876892 210.510605 35.461197 91.482994 136.886169 320.791107 247.240601 142.177734 396.845917 39.956379 241.937103 318.779907 129.233368 118.771042 229.546158 94.472435 147.810730 296.735138 407.274536 246.602722 152.699936 86.090813 213.639267 81.275330 100.000046 327.267181 102.864349 47.073528 121.556053 120.880569 462.004089 128.744156 72.522270 101.537300 75.724899 58.313404 107.680092 54.287270 102.068184 165.542419 134.548401 132.101227 89.630089 181.811981 102.496475 156.221115 62.373734 119.781380 104.675728 129.869003 342.417358 139.690872 160.728851 8.816120 133.383499 117.427940 99.346725 19.110212 137.926437 306.101349 139.055817 161.348709 119.903397 145.207184 139.790833 187.109497 132.255936 165.775528 88.340645 92.144577 326.159241 50.519440 208.011841 180.768417 97.873878 56.143108 51.223244 258.516846 256.260864 61.710697 303.422333 160.349594 492.722076 113.556137 78.871719 163.019196 103.262436 126.354523 90.549843 87.321426 108.353386 68.645874 196.340378 18.942404 117.467728 203.633804 121.219849 351.698425 73.483879 307.122955 142.541702 102.138435 87.804825 120.952576 100.256699 245.455933 105.746498 220.138184 25.634420 179.351013 339.204895 92.106071 168.731262 92.638710 11.828738 177.149353 48.131512 279.598206 202.346863 59.714851 148.959213 76.190468 57.392223 110.323616 206.692017 153.566559 132.476517 119.608612 88.599663 162.228210 158.669510 262.110321 205.024689 95.356743 193.401917 238.795090 412.631165 144.737854 174.719360 111.839020 200.917542 83.410110 210.431534 208.280701 1039.753662 920.455933 180.024246 82.737549 141.156433 112.377243 251.318054 164.711227 53.964767 107.822372 116.482079 99.547577 341.341095 136.180557 117.939072 118.299469 378.469269 149.452805 223.125732 171.158325 287.438354 184.537674 65.117355 139.037811 185.447479 115.583527 48.055725 178.399170 41.567802 270.672821 49.591248 224.570679 205.613174 99.171112 104.208572 242.328384 76.678337 79.070709 89.643341 370.595795 148.046753 168.266632 84.015862 152.965805 146.153427 207.831375 146.174881 92.114357 125.348579 12.315319 99.135368 115.154236 128.698563 24.765757 144.079575 93.912727 57.014297 177.122955 120.336090 255.121201 109.878532 4.503658 206.960983 142.942154 119.381004 289.900024 147.018753 86.372360 88.173561 26.373135 105.661446 60.175705 45.229828 58.656303 139.028305 145.737808 203.726013 125.591629 100.008293 51.029873 68.398415 98.205444 132.328079 214.287384 138.618790 215.935135 247.033386 105.887955 268.831238 60.252865 124.168709 97.908783 37.933983 69.728500 109.578842 147.508972 176.707611 281.596161 272.273773 141.072495 305.720428 113.358650 222.303421 126.568512 116.119110 122.397186 76.865562 114.917732 89.593750 88.364433 90.616913 259.007263 124.638908 69.422379 100.447227 125.313042 171.831238 178.024734 105.041069 87.354523 133.926224 134.389114 108.757698 132.967285 30.673803 71.308357 181.812012 158.217209 118.858475 7.153798 111.822540 162.944397 46.021751 49.538776 131.752731 72.876320 68.670006 73.008095 79.822525 214.612152 248.278641 196.052460 161.711517 142.869186 84.047661 80.967072 98.710899 31.711905 100.430595 117.557770 100.370079 94.099197 226.572723 316.791901 136.431259 326.098541 80.339203 131.218246 81.399956 234.153000 246.684372 98.533386 149.132568 225.775009 154.535477 31.186863 89.960068 278.011169 98.898041 94.499580 109.764595 146.020279 120.076279 118.426796 216.565750 131.121826 99.764153 443.164185 150.080658 120.676987 91.543976 200.069321 44.209808 98.166458 174.294617 389.845703 71.408859 391.170837 212.823212 147.778320 147.274521 192.761841 189.039261 148.288422 48.582985 153.472809 230.333939 70.214394 198.357178 52.548664 297.948029 103.245613 71.518372 65.519409 213.370667 407.925690 133.669113 164.323685 225.376068 175.047623 131.019440 124.231575 76.048691 120.310677 345.169281 19.024851 83.081520 293.447052 172.766281 132.143555 168.233597 132.389008 360.845703 126.995758 238.360718 
conv_15_param_0 533.481934 623.744141 462.173981 611.203674 501.770660 823.634216 700.120972 441.729584 328.186005 580.952515 674.359253 542.000122 418.335266 796.124817 658.406189 758.830078 580.202942 1007.878235 382.665924 730.179626 705.019653 613.159058 601.252686 412.615784 552.719543 450.769684 602.171631 786.229187 473.132050 564.708435 355.170349 515.127441 706.995728 840.710449 373.971283 1029.903076 480.450775 481.851624 655.315369 790.767456 525.970398 594.612244 626.389709 597.854126 453.812103 550.347473 551.429749 456.021637 614.324768 699.031921 569.045898 378.653381 505.598267 606.525452 508.714050 558.518066 488.936523 663.026367 400.498688 368.763611 548.338623 681.153870 803.770020 624.618103 
convclip_9_param_0 475.337067 2121.543701 816.435669 1323.893555 966.638855 924.541016 621.365173 1618.731689 696.038635 449.175323 1119.021729 1712.546631 574.022339 1403.383545 1067.244019 1085.380127 1597.866211 941.455750 1957.969482 874.189392 1973.854370 861.826355 541.921631 1299.696899 557.401672 469.076355 1535.187744 734.617920 393.712646 1072.968384 1477.387573 637.380371 1159.132446 886.839539 1209.356812 2506.489990 1273.650269 1581.955933 1143.278687 1783.074951 1445.068237 742.947388 1156.428467 1124.510132 2025.256592 3509.761230 1077.068726 1638.885010 1909.762695 874.790222 936.771790 875.309082 946.643311 691.478577 1242.896851 1562.843994 1015.868347 731.995972 692.946777 1601.656128 670.572083 688.114624 1700.320679 734.853455 478.126495 2121.571045 1632.093140 2298.943604 790.068237 632.672852 586.798767 1748.649292 1495.053589 1696.956787 604.893982 1486.422363 1996.369263 1118.858276 892.803894 452.460785 984.143982 832.529785 1278.040894 1158.502441 2006.693481 675.248596 1280.873169 1102.131470 664.246399 1896.067627 705.134460 3602.769531 62494.632812 613.243530 1060.164795 961.662415 742.078857 681.624390 1043.731934 482.259796 617.553894 2342.399902 657.920532 984.994995 942.079529 1181.581421 727.268982 1687.308350 2054.812256 503.485046 732.628601 2898.345215 2354.890625 883.510803 15556.841797 601.226501 790.276062 12509.168945 1505.391846 1532.779053 1175.383301 1346.624512 2088.570557 3635.775879 523.151794 1872.590820 1479.194092 1635.870361 975.500488 537.412781 679.624878 562.200378 1014.228638 962.255493 1384.761963 2360.145996 443.012573 852.864746 1266.888916 1722.010620 3194.385254 1370.443970 806.928833 497.796204 2593.490479 711.238098 768.354919 1931.063599 2596.388916 2759.307861 1013.723755 1113.748657 874.334595 1803.012695 595.236816 1817.685303 21285.556641 1806.031372 517.256409 1198.319336 1405.401001 907.444397 936.370544 12799.355469 1403.723267 562.498596 2683.334229 562.735168 794.196716 2307.822998 842.366394 1938.388916 1216.114746 1629.973511 943.239014 1467.425903 426.822418 640.695374 1283.915283 1771.081665 1253.647095 443.702087 1461.584229 1002.811401 711.341980 2793.472412 1185.432373 1723.074219 2183.307129 768.968750 1193.641357 1271.202026 7915.559082 1649.433594 2670.810303 1992.488037 2495.547607 2078.717285 878.198303 484.521973 1877.528931 929.286377 1073.755737 1507.797729 1731.416260 1977.894287 1645.911499 605.600647 676.165344 1417.234009 853.998230 952.087341 1733.287476 1330.932251 892.449219 1046.676025 1875.156982 1128.853027 1924.561646 1599.722656 3059.850342 1170.894165 14858.905273 840.587341 1228.437866 2273.275879 608.712158 17938.142578 1137.704346 2407.019775 2806.542725 524.170410 1685.578613 1079.425171 2586.345947 761.907104 2126.162109 1403.784668 884.853516 1326.363647 1373.710815 1380.416504 635.528076 1831.122192 1343.713623 1257.320435 1202.303467 1567.734985 1369.649048 929.778381 2658.036621 24238.056641 965.627136 684.489014 652.222412 837.872864 628.091370 560.461914 860.302490 509.095093 2298.767334 1102.225464 749.313660 1566.842529 394.370880 673.049622 156361.875000 1769.567749 1216.341553 1789.430542 793.198730 689.837830 1713.039185 2232.343506 1333.423706 714.709778 2021.093140 792.992798 10147.135742 464.940369 641.041260 971.954163 802.798035 1387.889648 8641.266602 2529.496094 766.668213 856.123413 2466.796143 1766.884888 546.477783 1019.718445 1325.302979 874.118408 947.960632 1950.296631 2523.178711 45569.574219 594.330078 1284.517944 976.041748 1287.179688 6969.256348 3080.476807 1570.558350 886.922485 659.886536 515.165588 1078.532104 935.885376 1098.331543 1612.918579 2206.478027 1275.058350 554.718262 1593.453979 62311.507812 951.742737 959.673950 822.365723 84332.437500 645.605896 981.622559 1264.015381 1462.228149 1271.970093 1487.540527 1674.484497 1252.620117 1695.348022 1150.356201 839.139282 1490.808594 1832.731934 1425.546631 1298.080444 2629.244873 421.997681 829.613647 2167.700195 1254.590332 1629.379395 1470.031250 1149.284668 2414.998291 600.560120 1916.428833 1410.805176 765.505066 636.665710 1322.543701 1715.669434 974.533630 884.100769 1901.444702 522.875305 1738.431152 2637.286377 1625.286255 1545.184326 1550.988525 438.555389 848.362732 2856.805420 658.726440 1643.577759 1128.628174 627.185303 1308.778076 2583.484131 718.402161 1044.760132 1366.058105 1125.238647 1442.477417 1017.347473 1488.623535 1185.576416 678.968445 14272.294922 1011.589172 1595.349854 12209.786133 1013.380859 
convdwclip_8_param_0 238.615753 45.139088 250.431671 81.041847 86.884666 69.346825 344.555664 45.736458 207.411194 191.363892 79.474800 56.472103 311.668945 58.476463 62.273869 153.229065 81.606956 364.318268 29.831367 240.094040 25.990402 155.267181 214.158112 120.206650 161.628799 337.196564 51.335472 479.948029 165.146454 273.049988 26.525105 256.390198 106.497810 183.232224 179.709991 64.760094 63.400665 141.119736 47.717159 67.038544 86.378426 362.610870 149.210495 62.608028 111.585129 59.466927 367.389740 117.297546 118.716301 172.122986 233.245895 225.803040 314.675659 177.616470 113.628273 74.336044 159.881699 175.009308 164.813248 30.730087 219.295364 165.920212 35.438679 154.345169 388.826782 133.575607 83.866554 85.527763 155.329987 227.888229 144.271149 68.174492 122.041077 149.122757 190.711700 80.655632 118.083092 127.568336 221.496460 166.794556 101.310654 174.330261 166.490585 43.529606 120.748779 392.231903 184.883286 106.837379 176.530060 83.513718 127.811440 35.668312 169.432770 189.997375 79.585121 52.358509 234.042465 349.729645 102.558327 242.088699 253.350906 52.426716 239.924591 134.460403 120.517212 88.684387 347.172668 48.484402 1566.995605 191.487137 228.292313 39.218868 104.396744 178.225342 8.904138 189.564911 87.262939 13.347610 79.674896 121.624672 160.090302 33.439804 112.113777 237.479996 275.215363 187.761398 154.594620 122.663429 86.887688 203.926346 239.637878 168.239014 173.466019 342.632935 112.062080 61.036007 366.498047 195.710815 79.893852 166.068527 215.044601 188.958771 202.409317 436.036163 112.715820 116.735008 202.270432 46.211460 63.223850 68.079163 199.287445 129.398071 149.544327 129.868774 211.339752 63.920406 47.716618 111.981392 166.900421 201.653427 118.872147 72.345573 260.466095 24.857693 108.395134 255.368423 76.193054 164.620331 284.077789 86.169708 276.348877 110.420143 117.774834 398.472931 107.871056 51.875175 368.227753 277.632965 54.528797 109.604195 47.452526 414.724091 66.614609 146.986633 308.120605 76.179611 242.507019 78.991089 106.403183 225.185364 118.056740 46.864868 4.803590 104.044479 30.542084 118.156013 151.811234 143.008804 159.052292 178.628021 143.205612 88.706711 141.543167 27.550348 82.377853 81.446777 72.061714 269.816376 311.217285 180.796402 96.119293 77.214218 109.372711 55.929108 218.514343 169.545074 107.630539 141.476746 81.820709 83.619141 85.952011 225.016785 22.852119 203.460709 81.465668 81.051758 234.505112 26.429989 169.359955 111.125725 7.048712 96.746613 649.910706 129.847168 157.768875 240.631973 117.118408 148.061157 195.722000 183.978699 129.192810 139.098724 329.977509 43.700626 113.701225 113.342346 91.704987 80.299866 36.489513 103.862404 174.500656 11.955305 93.516312 210.744339 318.422882 199.042725 74.671120 321.804840 141.218094 216.683182 115.090706 137.413101 139.762421 187.156708 256.603851 157.319763 2121.247559 90.509056 154.451645 123.641479 142.578186 304.947662 101.593750 59.963085 147.463394 377.010254 63.071037 260.154144 7.104088 345.185730 207.754822 223.048492 181.074371 164.251602 26.328041 108.115593 196.784546 191.818359 60.841351 73.434288 138.612747 88.288528 111.354279 113.742088 186.561707 78.534775 43.506981 12.268382 294.863403 94.275215 94.465744 139.678986 17.098703 74.832253 33.961010 310.806213 159.275818 208.854187 68.943253 63.754772 321.527069 90.540154 97.203964 108.908379 255.652954 79.003334 510.372040 108.768356 48.394085 137.205765 13.488420 333.506592 120.570648 160.060425 52.479679 48.280575 35.588615 69.691422 106.166519 41.848717 60.673443 234.501984 35.672707 22.636713 89.419258 85.964256 66.591278 154.350311 78.838242 103.302361 43.029438 36.902077 84.196564 84.972748 54.466812 203.913467 114.579094 35.404007 148.896881 404.606140 115.690514 40.100338 54.506920 109.244698 82.991798 280.207886 53.493134 91.913902 151.110931 51.146454 146.702545 126.077347 133.953384 135.560715 270.367401 63.830643 43.269367 233.135834 262.054352 84.998337 164.439499 145.163651 125.105095 160.478409 72.261536 49.213287 79.207817 184.690872 167.372986 20.166647 63.383472 46.269203 18.118404 81.186272 
conv_17_param_0 451.842438 1005.527344 522.290771 550.418152 468.378693 678.847473 700.219788 504.221863 452.371063 493.819092 662.091248 503.246033 635.218872 895.844177 925.183533 855.664185 632.337769 758.427063 374.104004 711.845825 664.193298 510.417664 541.783264 615.798767 671.667053 656.532959 513.649170 642.781433 464.455261 766.401611 291.689758 419.119110 795.749084 662.190552 475.200989 1242.167969 653.735840 747.432007 755.205139 632.138672 635.804932 489.906830 628.081299 590.613525 567.337708 785.136108 511.963196 591.032715 768.718140 801.155579 413.999512 620.612305 587.053223 564.230530 409.590759 622.103333 419.829102 642.371643 566.057129 442.022064 506.026581 861.884583 1117.007324 655.920471 
convclip_10_param_0 112774.250000 1927.971558 735.802673 2545.994629 1460.763916 1401.735107 1053.445312 12353.540039 893.999939 1661.343628 2820.052979 1940.679443 1101.075806 1247.217896 1799.809204 1918.598877 844.679443 962.708191 604.513428 1050.229370 1221.144287 986.992981 3888.654297 1875.675049 783.327820 976.831604 1271.883789 1521.090820 1875.543823 423.233490 1481.116089 2358.969971 11816.864258 11142.879883 2034.887329 1382.246582 1213.460449 2541.231201 696.531982 922.533081 748.612366 1527.865845 1628.126831 2416.509766 679.569031 17279.199219 442.133209 603.255005 1309.574097 993.770203 1285.576172 13634.583984 2405.264648 1604.039307 1662.974854 1471.419922 1068.330566 1260.922485 963.800903 1943.773682 1056.498779 767.349487 1816.472168 1680.370117 1789.724365 1056.902344 849.258423 889.867188 7924.989258 590.080811 1006.288696 503.672333 887.138977 27965.531250 1031.189819 672.898193 646.849304 949.350647 1197.106934 1185.160278 580.406128 6605.230469 870.861267 740.088379 1463.583252 818.813416 900.319214 1779.417603 781.846924 1629.591553 729.367676 2341.318848 1697.268799 2476.208008 1901.111084 8373.362305 972.901978 1332.875854 1904.497803 856.423828 5410.477539 1187.932007 1393.922485 1024.802856 2654.315186 12618.854492 686.254211 1103.221802 999.423706 639.427734 891.576050 855.703308 2024.983276 846.165039 1638.844482 1955.312256 513.133240 2428.583496 731.739136 1974.411255 1421.022949 1381.351440 2045.217041 722.744507 1123.117310 2606.272217 1310.499268 550.714600 1089.945557 1719.273926 2686.589355 637.098511 8573.618164 1193.482910 1197.056396 7162.597656 1389.980591 1019.107971 1851.731689 2206.085938 2145.508301 1893.901733 1541.753418 2811.189697 2412.487549 4726.848633 1736.364014 2436.552979 1458.953003 296652.875000 902.528503 1747.675903 1731.098511 1286.264404 2116.592529 1629.312012 32387.216797 899.014038 1736.410034 2323.056641 1469.814575 723.206909 1274.658325 1892.200073 1681.611694 10074.971680 712.853821 5588.769531 528.757935 1132.866577 2386.389160 1302.689331 2275.796387 1534.506836 606.402954 713.495300 1430.830322 1995.821777 1858.166016 722.839294 1694.555298 7523.938477 30451.386719 1380.749268 759.621460 1918.834229 1589.643311 741.317932 2578.347412 1353.005981 1711.823975 1160.771729 576.864563 1658.269897 1760.811401 1165.699341 624.784790 639.760498 521.663818 947.550659 1775.577759 1377.932129 514.298767 917.805908 1049.365601 2366.630615 1830.445190 1544.896851 1683.247681 547.368896 1332.364502 1167.977051 1293.856812 1660.174561 1398.746216 1089.942749 1061.540771 564.804504 825.983582 1807.623169 806.133362 2239.453125 1299.496704 893.575378 1733.943726 438.245087 1349.308228 1320.778809 1494.405273 1433.310303 1769.586792 21662.205078 2147.632080 399.555206 1846.129272 3201.335938 1793.323975 490.220123 1104.936401 2339.909668 707.982910 798.706848 10169.463867 1394.732788 1389.268311 856.792297 4123.665527 2673.417969 1021.965027 1074.571655 1904.393921 1570.451660 469.646790 656.815247 3135.491943 575.635193 775.795410 1343.542114 1918.319702 586.884644 2352.013672 1181.507568 1156.148804 1262.752075 1171.520020 1277.329834 686.249573 2247.022949 1046.478760 623.190002 1772.266235 59437.105469 1347.234497 1129.645996 1079.852661 987.280457 1716.243896 2206.291260 994.699951 11366.744141 2144.564453 1799.567017 11500.697266 1525.767700 1608.121948 2033.665039 2372.830566 850.193970 1122.352417 2418.533203 1946.683716 1613.628296 13363.240234 1479.664307 796.472534 1207.477295 1048.108276 586.168884 1835.956665 1164.947998 484.443420 1429.075439 1229.359863 1257.902222 2329.225098 1659.639526 1549.971313 1463.576294 975.590393 973.861572 910.787659 1233.691284 1770.338379 2023.532837 951.898987 2217.032715 1499.132324 638.802185 17616.382812 1680.441406 1002.369446 742.128967 542.669678 14248.062500 820.591919 1299.778564 479.782135 1041.895752 1824.739380 2170.404297 1623.091797 1858.565063 1626.347290 1036.550293 1982.054565 611.294922 795.631409 2413.189697 1221.046143 1282.580811 993.318176 1928.013794 1001.947021 2123.754639 3965.140137 1204.951172 1403.229370 629.045959 1318.317993 1150.623535 843.412476 763.602234 1488.276489 1737.975586 9327.678711 1275.107910 1465.159790 1552.890747 660.194824 55693.742188 2789.593018 824.639771 1774.929199 1207.129150 935.030090 1220.073975 2182.842285 3261.280273 863.000244 2007.209351 445.942688 1646.515259 507.389648 1865.722290 643.189026 701.603943 1073.908691 1218.156006 1065.448730 905.529602 8697.981445 2984.363281 8378.491211 2187.647949 
convdwclip_9_param_0 532.054871 52.253719 141.797958 89.982773 145.167755 116.414757 130.459732 6.667009 219.130844 93.850807 120.333397 138.454483 140.826233 96.635155 204.080765 28.462591 79.691528 157.941849 186.945190 181.081879 88.427162 150.561707 764.496826 74.488892 189.261215 281.084076 151.779343 85.141357 117.881157 441.899933 83.041908 69.693825 14.373422 14.638543 85.645836 203.958511 60.396660 126.103897 106.024872 267.925323 255.329651 101.752243 87.105125 82.991722 312.237335 9.599688 259.315826 281.859802 50.965134 183.706985 109.789597 3.755645 113.891441 155.929413 96.220329 226.731842 136.616714 360.007294 56.672791 60.544456 176.661652 204.583282 55.353294 66.237465 60.317245 62.541920 120.175072 232.871948 9.850925 175.223190 101.217102 330.081177 131.480331 27.499899 115.834190 278.254150 295.585602 99.472755 147.553909 37.729816 311.980682 34.677002 188.519684 120.151031 95.250320 214.787811 126.063980 76.145111 185.543518 49.676720 199.217789 67.633499 41.991398 30.592100 28.287411 5.032692 291.798920 27.549339 745.947144 156.887680 10.562486 75.715004 96.625885 77.702522 130.918640 8.911585 309.969574 127.031029 47.537544 128.579910 162.486450 218.732864 77.413712 103.163712 158.134491 103.359261 404.619507 95.734093 111.759918 15.637649 64.753235 261.695251 29.834824 177.928818 209.720093 62.659191 47.699734 229.265747 85.408745 860.197754 60.731335 274.931458 11.816180 36.196125 95.137123 22.172972 82.704193 164.871658 136.740768 79.781036 71.240395 50.344090 143.195862 105.678421 286.243683 4.458589 11.503050 156.983337 91.684807 2481.072021 87.713699 45.987457 181.853867 129.547287 79.648026 176.319504 116.849640 204.722641 143.499298 108.621681 99.199554 138.168381 138.003387 123.983101 115.120140 35.395889 277.279144 15.905075 215.910339 87.645729 69.333664 112.358589 69.052856 62.715122 196.871124 277.574554 139.388916 66.718071 58.203537 333.564850 68.256363 27.397593 168.984375 57.377621 150.760956 72.412056 93.109573 177.785141 80.632790 124.954269 107.144653 178.160522 436.015778 39.855652 435.805298 144.283035 185.847336 118.357994 123.512222 200.809219 121.466843 108.801048 283.680328 119.537697 193.210938 26.027901 83.908958 58.138714 29.512802 233.978577 166.167801 30.424845 194.735184 37.365219 74.704437 78.069969 83.149277 117.016785 132.450531 123.732651 161.350403 75.450500 131.533997 147.043106 114.909416 394.606842 252.316513 73.935715 158.575821 202.931763 75.850822 14.901742 65.804703 340.100800 69.256516 35.756031 100.216408 120.084587 76.261162 160.832581 333.955078 308.499329 8.335148 88.296906 120.018974 223.996292 2.207013 34.662914 184.148560 110.539345 152.636566 115.482498 257.511261 348.618622 81.181122 213.677505 155.219513 51.530064 98.165276 185.026352 90.325470 93.971237 93.671959 151.091293 88.056938 163.398209 107.517311 43.262520 135.202377 179.668106 68.357071 155.216537 136.183823 116.245453 91.180870 102.574242 77.725929 85.556923 161.360535 6.433473 92.843262 51.262508 7.887931 103.564804 65.862480 127.802696 15.866111 142.692230 250.453064 59.489368 55.898144 170.621811 13.021024 146.070404 244.049484 85.613556 91.206863 333.439606 23.201834 268.438171 136.697769 73.835922 115.208771 90.601089 76.125214 191.761597 180.492508 99.683372 69.412529 143.781219 330.272217 67.327698 34.944153 86.693954 67.873886 58.700180 113.717682 98.777649 11.084965 67.991127 206.337296 508.324646 417.276306 10.479037 123.468613 96.174797 415.664062 187.829453 66.114532 18.972548 70.988106 119.158913 39.986507 183.038101 187.302780 160.366470 224.717102 104.398300 91.201286 63.645691 121.358139 213.746613 201.362122 109.749519 63.450485 160.232147 122.033936 237.910049 152.912491 269.168121 214.287277 199.225525 55.623604 147.689651 10.545887 56.050011 105.467827 99.154388 221.165619 8.867564 50.434387 93.717712 557.908875 147.978333 157.351212 82.092705 76.498985 46.517361 187.463455 120.077629 236.792908 13.139969 477.731995 34.065121 243.030273 89.918182 159.796494 163.016403 168.767456 363.753082 4.714090 58.869774 6.987358 70.394859 
conv_19_param_0 482.243744 789.252747 576.788147 556.101685 526.170044 935.379150 769.462952 532.731323 528.740417 508.090027 569.424988 548.027100 837.005371 940.128540 648.160645 650.864380 831.519592 1332.055054 362.940521 573.029114 749.706299 872.769775 578.114990 646.575500 610.650085 584.678467 452.222687 873.362427 417.845123 563.452209 331.538757 419.923157 452.147552 639.997070 529.536316 875.729004 726.848755 625.920471 937.749634 956.721313 527.549255 384.327087 773.960999 528.095093 535.719788 633.268433 483.553436 347.900513 756.389160 532.117371 362.360840 505.664459 510.394440 574.351318 538.761658 800.709167 404.919189 517.642883 691.966797 471.326874 355.168793 699.056030 937.851807 649.093872 
convclip_11_param_0 1556.573120 629.380737 1227.645264 2008.645508 1695.885254 911.863647 852.081482 956.034302 1757.440796 2911.357910 2909.034424 760.761780 1572.672119 1229.084473 762.285583 817.430847 861.802063 1652.582520 1244.046997 1095.822876 1540.341309 1476.824219 1351.675293 551.065369 751.479858 1221.032104 1607.995850 849.078674 563.827026 1090.911865 827.244385 2499.143066 694.709106 2248.449707 1619.772827 2134.886719 719.987305 2132.898682 915.525330 1319.928833 1611.340698 630.812927 3501.185547 15658.428711 522.859436 1486.943481 1071.971802 1894.221191 1076.645264 1412.884277 2969.257812 1341.883057 683.802490 795.298828 1777.744263 2102.672119 604.450867 2107.883301 1968.925659 2754.304199 592.982422 697.716248 2979.711426 1630.894043 947.272583 952.855713 1617.460693 1532.352173 1034.317139 2091.946533 1271.980225 1164.015625 3638.187012 1536.944580 691.618408 529.974609 1696.690186 1507.193726 707.292603 1467.575928 1063.151001 1043.778442 718.101929 1419.745239 1521.203003 1371.642944 559.307861 598.476990 528.021912 1098.266235 1253.236572 1202.822754 580.449219 1051.848877 999.917480 2391.583496 1492.788940 1810.932983 478.943787 671.255371 1424.898682 559.124756 605.484192 1203.945679 689.289062 1009.885864 2398.182129 483.401062 1766.838013 865.449280 523.840515 739.271667 2899.220215 984.949585 852.524292 1562.502686 587.892212 1280.702026 3678.276367 1498.512573 1379.261719 1499.821411 2913.955078 567.580627 1707.989136 1035.023926 1424.138794 1377.656616 1083.130737 584.657166 2193.656250 874.848145 1706.340576 773.623596 1024.726074 1100.237427 1235.933594 557.401184 24086.330078 835.763306 1651.628662 659.821228 464.048676 1042.727539 872.875366 1430.991577 1444.101074 2276.133057 812.840881 1073.089233 1853.002563 740.343323 2397.670654 1172.615967 788.139465 770.297302 2231.962402 1486.013184 964.208130 2475.177246 749.555847 5384.262207 566.958496 937.148926 1842.669189 789.439209 717.325378 2303.159424 501.799500 1648.140137 987.465271 2703.591309 690.379395 2230.311768 1453.529663 1889.167847 1616.236816 1914.921143 1420.761841 998.592651 1303.983032 1633.556396 1251.843750 2708.509766 673.068848 814.765991 670.401123 567.210144 374.427917 1833.806274 672.275208 739.086731 1379.105591 973.964905 1011.978577 1623.869385 877.747131 1038.432129 341.269135 2572.962402 594.852417 1014.016235 1806.377686 775.203186 1308.286499 862.034363 659.229614 1762.204590 571.304993 1101.197266 1044.115112 1718.051147 645.192078 570.558899 762.817993 1509.239502 738.092712 1574.914429 1387.298096 833.209229 1314.969971 1208.930664 469.096710 1259.337036 1517.607544 613.074402 1257.478271 1300.048584 1328.042725 1956.296509 1051.092407 926.822449 1390.609375 1447.367554 2177.722656 3333.299805 1368.510498 878.692200 3100.871338 1493.450439 1477.235962 1800.322876 1186.967896 448.373199 1116.901123 786.170410 670.548828 461.528229 545.114563 1273.028076 1409.733765 1363.750854 1692.024170 685.381958 705.185181 1682.569946 1668.065674 1719.665039 699.083435 901.680298 842.373291 593.784851 1972.727417 871.362976 1772.135742 1360.925293 1968.805908 811.725891 1536.625488 1153.037354 1108.024292 482.006683 1957.174561 578.508484 1273.666382 1322.531982 1233.461548 2228.572998 1600.440918 797.888672 1234.766479 993.009277 798.700317 827.738403 894.369263 1351.765137 1094.779053 1164.719238 1107.439087 977.276001 1661.479980 847.936462 1312.208984 1291.090454 1208.614624 695.295410 947.007690 2401.098633 705.801880 926.868591 437.802551 630.985229 495.411682 802.706665 1029.604370 319.154999 1559.799561 2199.244141 1560.847900 1294.350220 1290.050293 2458.101562 1522.842773 2867.317627 858.425476 594.937805 2491.842773 2205.253662 2167.015625 1706.758545 1132.699341 1853.089111 1061.213745 1514.371338 1582.263916 2550.352539 1790.695435 784.284851 1314.041748 866.359680 1714.281738 1165.968994 1051.960449 1815.519531 2077.672607 2603.159668 1282.564819 630.702026 1080.121704 1214.563965 1109.478027 15094.348633 3228.450195 2054.996826 1257.675537 1498.859619 1370.337891 609.780640 678.627136 676.770386 1615.362671 837.677307 1442.893311 671.239502 1188.538574 1006.207458 1108.166016 573.888733 865.023499 731.343689 991.593750 679.195557 1632.648193 1345.019165 2585.373535 885.620056 1410.335083 1709.372803 2206.671631 715.290833 774.812500 1954.811279 615.076477 659.644714 1028.538818 1511.218872 530.034363 1219.994995 1735.566406 1270.153564 951.945801 1381.841431 2006.987183 1603.996460 
convdwclip_10_param_0 139.541595 229.289215 136.100204 234.694168 84.130882 176.834793 179.245300 304.600555 113.274475 58.686295 31.319725 300.455719 142.779526 74.497574 187.727859 174.772690 158.030304 75.848328 179.745804 107.272675 109.092316 48.756222 137.029480 510.702545 234.085144 107.525505 90.751991 123.089462 437.001251 102.388794 109.783867 83.380310 146.219254 31.497896 133.792587 158.881104 164.996124 107.764633 137.744797 134.634247 41.876125 337.808411 52.198975 25.597666 138.967133 228.981247 83.992790 93.156181 167.836441 112.785057 46.307095 85.002899 220.304001 172.459900 49.273441 56.106255 149.274231 93.852821 120.877541 45.351849 304.048523 458.525879 70.516930 253.460449 145.852921 154.254898 133.403671 110.350151 121.325462 61.057220 134.449982 64.510841 36.607372 151.793121 299.117554 178.332855 113.508499 87.934738 632.185791 44.552166 210.162277 66.458122 167.067596 97.489845 44.523018 67.338547 435.449310 225.295258 256.100525 93.084282 162.474548 62.581039 154.481979 184.091507 73.703743 108.624916 87.014671 82.305191 179.377045 244.415634 139.386078 239.508850 440.984375 317.649414 135.598007 300.352753 132.773956 207.724899 84.214531 570.306091 221.018143 110.526337 42.758533 219.577896 149.550079 97.532913 130.139328 54.211952 183.715057 136.589020 132.358002 242.834732 91.263458 225.286514 70.671867 226.384109 176.486450 105.295319 196.500580 460.673401 50.948677 380.529083 99.201744 410.399628 211.195572 175.758011 128.223892 517.509094 7.443892 111.210793 104.925224 338.934692 173.689468 179.615723 275.131104 182.743530 50.832684 122.066559 106.948097 73.844452 125.948494 207.037201 116.456230 102.171005 269.038361 148.500870 71.132523 114.254662 222.110596 83.554184 221.284088 24.479738 431.009003 288.511444 82.713142 104.747253 105.197929 126.976807 190.755432 131.043854 108.953957 46.791111 214.655136 136.510895 87.284195 128.074158 59.793800 78.804893 56.554680 262.253662 98.946327 155.740616 188.012787 94.855873 384.596436 86.684341 250.956436 210.173737 385.295837 113.722725 292.325958 104.556969 190.202789 186.028381 238.532837 45.331131 145.106079 301.893433 377.448914 54.073647 370.012238 138.841110 177.658890 131.149490 60.709465 186.276794 360.561981 42.561680 128.380020 338.607239 67.540222 38.951645 207.056213 351.245941 324.995117 185.908371 128.589294 107.505653 123.723656 102.048370 44.504272 92.847183 162.721405 115.693115 76.816277 287.056732 126.126991 116.195389 99.782379 30.434393 103.517235 66.460815 221.726334 91.185623 50.645870 31.922647 122.718788 73.789284 121.073112 74.638084 102.575706 189.341522 93.278076 542.163391 93.146339 183.791718 472.193878 144.774948 427.995026 240.461227 107.004860 86.618195 162.823578 310.595062 247.300949 84.642105 96.685341 95.516747 234.548386 179.363098 121.811394 154.001282 42.896824 197.606155 135.075424 63.222874 151.961258 205.253754 135.615631 117.020561 293.540283 424.430817 38.324974 143.381516 212.092285 171.604935 51.808460 101.830666 139.024429 97.630661 78.515198 337.192932 208.346390 137.020660 97.533714 206.169815 75.946579 196.382812 146.486801 84.133507 87.894920 238.740341 72.152336 90.360359 140.420578 313.762177 117.934517 60.361591 115.024620 138.877899 133.776794 170.910812 198.933624 174.744537 154.206390 670.480591 86.136726 73.199959 75.323288 88.460312 69.278824 127.146935 141.984299 68.855652 127.000473 103.112122 53.169022 58.674660 70.699707 78.290070 67.571609 69.519432 173.364395 60.154835 164.817627 28.142601 85.641617 222.688477 196.502228 322.232605 110.901794 113.622490 137.146790 176.487869 201.792038 80.054398 120.100723 136.369080 66.626602 80.327927 341.528931 28.109293 34.528233 52.776459 40.133865 95.456024 290.525146 128.562988 444.680969 245.025070 150.260910 89.572067 138.973846 146.679733 151.496536 88.563866 197.851608 394.317139 167.753967 381.272278 216.782486 180.258270 208.164536 100.056541 46.994625 137.890762 88.365341 77.902161 55.004749 137.703293 351.878357 56.649826 219.255829 228.556320 101.252426 138.008118 129.054138 202.831375 140.461441 151.647934 98.947510 61.828728 114.486824 83.728653 
conv_21_param_0 888.340942 905.328857 644.330750 506.667755 829.129150 769.197327 610.072205 652.225647 579.594299 890.696838 796.087097 492.120453 410.793854 712.804688 847.409485 646.074646 544.164978 777.667419 722.748962 578.532654 758.787903 675.262024 834.114075 583.878174 806.028625 759.632629 794.317505 718.809204 602.031616 675.607849 646.574524 703.766785 591.265076 794.060791 743.803101 949.258972 724.884949 656.169189 733.535583 887.238892 654.113770 823.554016 639.634644 624.938782 657.716125 598.891479 576.035156 579.690247 739.904663 764.459351 741.036072 645.702759 651.262024 904.197144 676.749634 679.017883 588.358398 628.308105 638.902527 797.236267 780.252625 792.762451 600.548462 447.188965 550.346069 648.197449 756.007690 703.635742 741.193420 936.400024 780.959839 644.797729 693.171753 716.325623 660.046021 696.817139 726.779724 567.598450 657.351440 591.060364 733.412231 599.352051 694.715637 750.972961 579.672913 866.196350 454.003143 623.949707 679.944397 712.876953 687.213074 810.317383 625.561951 635.320557 696.816833 730.125244 
convclip_12_param_0 1325.383789 1257.621216 550.231201 669.604675 584.942688 1252.902954 1136.565186 604.418030 1065.889404 554.291931 651.109558 1172.142700 878.638916 555.013062 411.908417 1093.381836 860.570557 1224.411621 69457.898438 1034.311646 2456.377930 903.449829 505.710297 1860.798950 8016.438477 1219.064453 806.665344 1458.593994 928.835144 1035.166748 422.810974 1469.913940 1573.314209 1372.376465 1584.750610 606.926758 1145.705200 1651.520630 362.775909 683.583252 575.549255 920.310425 489.303345 606.222473 402.491516 741.002563 3758.993408 536.936707 1570.381714 1062.225342 30692.613281 420.739441 1070.012329 723.960815 953.245483 1017.700073 441.775085 598.257324 1575.647827 1296.322998 1253.976440 909.343994 1316.109619 1511.387573 1370.159790 1331.898682 702.433289 1372.280518 925.292175 943.043762 855.307129 1707.198975 1724.978882 852.493652 1069.187012 1014.170227 1211.994263 1496.069580 984.172424 827.460327 1186.219849 486.805573 535.629944 979.134216 437.410431 1100.672363 784.630310 943.456482 563.722412 75709.695312 103990.257812 1155.356812 476.129730 1146.248291 1243.190674 279.089508 895.312927 1474.809814 674.735901 1291.746338 710.808899 616.369995 1016.023010 2009.029053 435.932587 1176.231567 1414.419556 517.106567 1280.134888 354.159241 2192.708984 772.530518 1459.405396 1812.482544 502.125702 1550.666504 1172.005371 66826.273438 606.192932 1391.572510 329.480652 1846.721680 1337.296875 378.105316 416.766907 1028.543701 1929.253296 708.491211 920.381409 1074.949585 1197.731689 1198.410645 1867.825562 1282.741089 420.328766 424.826996 749.348328 876.433228 2166.366211 554.973999 919.179443 1369.602905 763.522583 1749.433594 1375.722290 413.314270 738.493713 1225.263794 626.664490 7394.400391 553.721619 566.913452 729.233704 624.202454 1097.460327 984.714355 745.055481 1327.060425 916.204224 6769.335938 593.025085 2902.017090 903.915466 73856.500000 764.876343 1291.441162 826.950745 375.645691 1050.301147 924.296875 1191.902466 1205.835571 610.330811 2037.281372 1592.635986 854.771179 1138.859131 577.681885 967.049500 592.309875 929.426575 661.985352 508.330170 579.207642 1456.588013 1100.950684 407.586884 1195.193237 404.100098 365.268768 666.971802 1176.275269 1933.573486 511.483276 492.892365 456.925171 370.465485 1093.168213 828.296509 849.158325 1201.110840 1051.569092 1535.490845 572.885864 761.786621 682.724243 381.618805 1524.638550 1557.344849 1006.188354 648.216919 684.888123 1059.993164 1535.924561 819.037292 439.911041 1288.323730 6141.979492 783.993835 8240.288086 640.194153 1232.291992 1805.621460 1461.331787 577.403625 630.274475 447.620636 1474.075195 594.840271 6965.001465 1288.812622 368.515808 57988.699219 669.598511 1515.963867 96945.828125 714.503967 817.898132 1574.934814 636.274902 919.685913 1050.575562 1250.242188 1045.405273 429.845642 1046.284912 623.330688 1076.729980 948.009766 911.388611 819.107483 847.838806 883.856384 1020.512817 1318.359375 664.430298 784.117676 888.319092 1705.505615 941.425415 1616.959106 687.566162 734.117371 1002.498413 711.792969 1138.367188 1189.905029 648.654724 828.490723 913.830811 946.131348 1360.291626 1254.743652 1318.465088 1058.942261 1539.011230 1028.396362 1405.913330 1164.332031 1175.779297 1155.564087 1470.425415 1668.257690 929.032043 603.960388 1377.495239 1218.950073 711.558044 912.454285 15225.323242 695.426514 1050.082153 726.754883 1051.589600 950.169006 1226.724121 1929.470215 594.614502 959.412842 1401.525757 948.387817 2187.216064 714.471436 833.711548 1823.094360 437.118927 1258.740845 1050.108887 667.338684 480.139130 1073.214233 962.869934 2169.717041 1878.515137 1481.352417 1384.409424 1162.148560 748.194092 833.432983 957.805786 350.052887 1808.593994 429.936798 340.434509 540.310120 1103.670898 1208.109253 678.510559 612.524231 465.518677 1116.744507 418.334564 1421.913330 786.818970 887.311035 909.316467 811.679260 971.839844 432.936493 698.040039 531.906128 773.036011 726.351440 1140.366333 650.955017 1154.800781 1036.267944 390.990753 873.804810 1166.313599 1213.259399 1109.214966 481.910522 1056.743652 1062.395264 1104.596802 1021.135132 808.617188 492.422760 738.459595 2080.176758 729.170166 18539.220703 1251.630859 1614.918945 353.252869 1197.899902 784.120483 1192.147705 48264.070312 676.834290 1443.871460 530.114258 1632.521851 1131.850586 1053.849365 952.899597 860.062500 678.151428 462.865448 561.533081 808.105225 794.182617 576.670288 1121.944092 979.598328 620.829163 1937.831787 852.006104 1190.815552 498.395874 959.240662 841.512695 780.837524 1120.692993 1429.936157 761.777222 6623.232910 1396.951782 465.731903 839.324829 1906.399902 909.046448 1364.750122 1205.472412 870.448425 401.633362 480.301300 396.374481 282.523285 777.046326 1258.706421 915.886414 1654.543823 618.208557 837.877625 1184.574341 774.499084 327.131348 1078.321899 1462.039917 498.568665 640.753113 1144.587524 507.037018 1585.294800 429.852692 1149.374512 2029.386475 1786.209595 1669.369019 427.636658 261.339966 277.845886 1061.768799 638.118591 1256.978882 13357.668945 772.619507 1044.972412 506.905304 1061.557251 508.267792 7369.604492 403.674988 1354.124878 866.911255 627.711792 577.785156 894.078979 934.182556 308.412262 635.385498 1614.922729 582.805664 501.397125 2069.571777 1126.900513 1201.963379 918.602722 995.963684 10005.187500 1572.035767 1014.039429 3009.947510 1287.121704 1251.742798 1124.857056 1784.719604 853.335327 1147.572510 387.356689 618.188477 1152.877563 694.897095 1533.710815 408.757202 1219.321167 361.436859 1452.999512 1318.742188 407.781738 389.908661 1266.693848 850.057800 1601.785767 1341.271484 771.609192 548.812195 11649.367188 968.049255 991.140259 1316.958618 3526.652100 1178.404297 1163.460449 1743.225220 2173.560547 474.850555 701.209045 550.229065 456.233795 628.263184 349.415558 3799.758789 729.922791 745.283081 1241.689941 253.099762 694.069031 566.057190 1141.318970 18321.294922 1549.361816 358.572937 737.661133 641.008362 567.340149 494.041565 915.229492 603.169312 1503.520508 1079.242432 8569.815430 1507.276855 892.339111 442.130493 1579.533813 1261.997925 717.157043 773.448242 1054.739380 1155.662476 6241.800781 999.137756 6521.918457 1226.644043 1475.004272 622.968750 782.001526 12564.928711 1494.612915 905.311951 1004.032227 454.047638 1215.256226 781.550049 2438.323486 455.116394 979.827698 1897.489136 570.827454 1442.317871 1077.271240 860.156555 581.926453 931.390686 1639.570557 774.018555 1220.740356 920.634338 1175.599487 930.302673 778.198059 907.740417 667.458008 525.477356 15353.320312 352.726044 1002.776123 766.477905 4095.482422 832.260376 1372.814697 974.528748 1512.887817 
convdwclip_11_param_0 56.261082 32.511715 149.015610 301.296265 264.656189 28.586868 76.870277 81.724434 136.955460 248.748108 99.331696 96.531944 178.562454 132.580704 189.617416 69.282104 147.227875 94.382530 14.322601 61.873310 92.040382 76.542290 141.664932 38.144264 56.750126 88.075081 286.183014 41.789619 174.968140 74.969696 255.591232 113.024879 85.015808 162.841782 65.842560 223.468613 127.057678 31.532804 232.567673 100.926079 200.108597 47.078609 136.384506 189.449921 373.546082 116.766197 36.323891 228.151031 60.217297 129.166626 10.902354 240.076508 37.565384 259.324463 396.997833 57.148705 108.111656 194.455872 105.307205 47.965843 176.236160 76.898026 54.908848 87.879189 38.729774 58.902760 133.044098 83.417023 72.531685 54.813419 117.748825 103.496063 27.884550 90.868851 57.692570 53.211311 83.732368 49.799126 109.748367 81.418152 53.745014 156.704254 282.362823 173.351654 225.561401 81.618408 115.389732 73.328331 240.503189 965.314941 520.070007 44.780231 79.523163 86.555199 30.782343 302.049835 212.476227 166.698334 91.119003 34.893410 146.865372 97.560104 27.189243 44.485203 322.837891 50.619041 32.898518 194.966461 138.617447 334.006195 57.851337 115.205956 90.345978 52.615242 217.061737 38.120285 53.125523 1002.739990 166.544678 175.545441 246.242859 202.379227 53.822529 322.500275 199.407410 107.182281 45.384495 154.638870 62.703053 101.966614 74.313591 13.791076 363.976471 26.972944 93.993500 435.020050 175.944443 44.672409 13.859484 164.763779 139.666229 122.416756 119.253609 122.081192 75.300583 281.310486 76.314980 61.467228 112.232445 28.789820 439.931000 137.048767 136.355164 230.673843 41.664536 30.673758 84.211205 62.394520 77.588387 12.762605 158.962524 42.543373 160.839920 1166.210571 85.383987 88.652802 61.427734 205.997665 85.335716 115.943787 63.311520 61.889671 204.515671 47.792645 148.865784 113.061050 49.969128 237.628082 176.840515 282.322266 125.578186 260.644501 211.870483 81.476501 55.397972 59.291122 363.436981 51.708168 335.189911 141.084274 112.006989 40.510010 77.242203 148.625305 218.586456 231.088623 258.663971 35.517773 141.384918 53.655113 132.097260 116.389481 15.608417 145.666443 106.026573 125.507767 239.521286 68.372993 90.634056 64.237900 220.836945 63.125370 119.181305 175.710693 307.310547 184.767303 1034.372681 18.182636 185.015579 8.494955 186.160767 78.437523 33.168400 101.270020 268.151093 221.777283 103.768234 27.864717 261.725861 7.980905 30.502140 252.584900 1121.464233 77.950798 37.029091 2766.209717 201.332687 66.673592 47.262184 198.658112 94.876610 180.216125 44.752270 67.062004 350.963745 91.457428 197.304398 87.122040 73.272728 134.513260 69.168793 147.827499 68.752289 56.943409 46.679142 278.566437 72.144196 75.358284 51.473560 83.233032 148.038940 238.607224 99.003998 75.329727 125.916725 127.439407 64.785774 107.743195 199.974243 217.389282 169.100815 72.862816 96.477295 50.385231 89.683640 158.259521 167.471390 42.501724 195.542877 26.056137 159.529358 34.111458 89.926796 100.323463 249.577484 158.875168 140.635895 141.661942 84.129616 14.494048 91.353180 70.936661 166.634048 67.721443 70.472641 51.394600 107.609787 171.805923 144.290451 74.315536 131.241837 109.783867 162.434891 180.385345 158.149597 160.082886 47.133099 128.631851 219.268524 133.179901 63.252281 164.392578 106.957138 121.011848 37.361000 138.253479 57.348869 150.989471 97.090378 55.413948 202.223129 32.285500 233.105377 153.843353 171.671738 100.113884 74.259544 147.139404 126.530586 124.338402 49.180645 281.649445 717.777222 66.111069 174.934189 127.076775 69.471550 103.756218 79.542152 285.130585 116.343407 104.079079 155.792328 56.420967 150.802109 109.070297 176.262192 97.440018 121.265877 37.079525 173.731857 67.008713 137.453461 98.024147 92.200157 139.069778 143.746017 92.134689 326.395782 134.418427 82.087181 153.962708 239.835602 72.191696 70.683540 275.740601 85.706787 126.783165 63.893509 645.155090 177.653412 108.885002 68.353401 42.538437 111.860298 74.740044 71.712051 77.570717 116.243347 213.213928 312.410370 152.481796 122.251160 140.680008 56.237530 122.424423 148.962494 80.843781 62.247608 42.910709 190.382462 37.532738 71.768875 72.571938 71.113113 156.292831 74.066368 9.436908 25.855204 288.224945 102.784424 30.453215 79.131378 45.551823 92.746132 129.592697 262.861847 168.418289 183.675323 272.344360 184.865753 94.032837 71.486328 100.194862 247.965973 219.499222 95.733551 61.636105 332.316589 132.859589 18.969925 207.528778 94.629745 43.142441 274.948792 54.964592 409.587494 36.806091 76.123169 57.395092 67.456017 273.672760 267.293274 362.420807 88.803040 192.922150 74.186226 29.718647 145.177902 93.951935 107.833694 150.026291 197.105225 17.003525 237.960419 90.332138 48.851711 199.605255 122.266258 147.697815 200.877441 173.435272 62.850220 108.363777 285.365143 366.308990 298.578003 35.297104 100.645279 114.035286 127.845322 9.608168 163.156815 48.272724 29.338465 107.477158 71.046631 65.350014 29.394665 87.711281 230.977997 147.934311 209.869049 62.497753 168.220215 173.462509 135.825623 92.593697 402.509979 56.630638 41.562241 162.314957 152.487778 116.924294 118.663506 37.495705 103.220589 107.955971 148.969757 13.600389 89.725815 170.360306 92.043213 42.110588 48.795540 121.546356 45.454876 445.589111 244.311600 232.450027 193.119232 306.692749 91.172043 280.671051 102.274261 107.843094 141.891281 91.644035 277.528534 113.527832 317.332062 86.169373 9.473298 214.344620 302.489899 87.310577 286.681183 217.844574 207.246216 132.786606 408.715698 99.560089 75.575096 25.983517 74.500168 197.598770 132.996872 116.609535 54.492523 170.785522 99.185905 94.680252 60.085110 18.031179 76.182220 34.710648 46.640606 85.825577 111.870789 86.067482 9.638231 142.280502 58.407253 168.437027 181.884186 44.766117 107.534714 39.413887 98.390884 225.275909 80.012634 196.873062 103.043449 53.197163 72.675354 289.572632 158.537933 70.482803 182.152695 65.475876 114.158897 30.648886 145.058487 142.547287 49.479862 90.723190 156.992249 7.960639 362.198883 54.420395 137.909988 56.447433 154.535690 34.481110 154.369064 38.652847 
conv_23_param_0 474.203888 521.802979 660.726562 1056.195557 666.374390 693.199707 684.148804 639.398254 742.033203 555.057922 605.690796 603.443115 735.571472 1111.345825 573.639587 800.869629 588.612549 1027.798096 559.591431 762.659729 768.673645 607.635315 842.288391 427.072296 595.153931 647.719727 605.835083 804.627686 1057.288696 1031.904663 533.643860 749.704529 695.476379 990.407349 830.245056 875.666931 673.355042 558.168579 551.212402 582.150818 2451.079834 740.725769 531.078247 467.123718 785.050659 603.887695 513.746887 594.983948 698.139709 597.574158 858.931274 688.812622 709.670349 658.077026 374.349487 550.780823 711.869873 934.440735 622.669434 713.709045 624.484436 522.872131 743.123291 651.651245 1534.229614 552.481262 636.580994 516.865906 535.525024 643.878906 428.907349 468.046356 602.139893 518.816040 583.452393 793.494995 785.308960 648.248657 1222.553711 948.716125 570.111267 744.755493 522.307495 698.323730 501.187866 675.953369 533.086304 778.356689 556.253174 635.207336 480.885529 914.986633 505.787201 543.420532 468.421631 496.140350 
convclip_13_param_0 2059.393799 1846.953003 1672.491089 821.880615 1619.408691 1540.993896 907.930908 486.896851 1831.073608 1690.687134 942.045166 2710.281738 1317.883789 1280.878174 1310.121704 1694.822632 1223.045532 1612.693359 1155.318726 1315.963745 1921.525757 1022.331055 1240.986572 1607.200439 1378.661133 166845.859375 1488.945068 1033.079224 616.295227 651.408386 1373.215332 1014.511719 1584.975952 1155.411743 1229.008911 621.442871 848.867554 822.109985 861.887329 1385.939941 1708.787231 2275.103027 1996.553711 1285.869873 1919.148804 1222.286133 1342.178101 407.416046 1713.201904 1186.405640 1016.005615 1521.714966 938.125977 1598.805420 1690.571411 852.227173 1067.532959 1417.151123 20305.382812 1262.340088 911.418335 1013.148804 1811.051758 1424.248413 865.904114 1266.725952 1269.344849 1549.747070 1762.125854 1477.812256 612.110535 1925.772461 1332.234741 1915.494629 9065.214844 1356.595459 1628.787964 1783.165894 1437.748535 1224.924072 2123.878662 2305.634277 2605.839111 2187.532227 2328.503174 636.300659 527.715820 814.850708 1222.762451 1981.945557 983.955139 475.495361 1182.179199 1113.830811 1414.665771 4854.925293 853.757507 1479.436157 1667.717896 1577.228149 1743.688232 1444.543701 1025.405029 920.964417 2622.467285 1380.509033 1466.940796 662.160645 2181.354980 866.672546 2175.193848 577.978088 14885.904297 744.022034 934.899170 1363.012207 898.466248 968.353943 1747.021484 1885.349243 1094.446289 1372.533203 72153.062500 1460.698608 537.411194 1333.781372 371.073273 2185.811035 602.914917 597.609863 1965.011719 1625.458496 97551.710938 2656.279053 1483.256104 1527.505371 782.150513 1668.129395 474.200256 1018.095581 488.714355 1663.820801 1455.271240 7891.441406 1412.773315 1491.304077 1570.798706 1510.093750 2317.195068 2294.854248 666.223450 1193.493164 600.563293 697.058167 1677.331787 1053.057129 605.993713 1551.171021 1660.230469 800.826660 1180.057251 1506.042114 636.026245 1673.130249 762.320557 568.779358 1930.987549 15960.577148 3024.162109 428.364624 1765.960693 1361.558472 1191.135254 1890.891113 679.989563 6845.502930 542.423340 25772.935547 767.404358 1272.990112 750.748230 1722.221680 1507.001465 1188.212891 1251.692749 1222.461304 2487.959473 1076.768433 1716.796631 1270.753540 664.824036 1267.096069 961.156494 1435.706543 1090.084961 2021.032593 1207.980591 1055.737671 2078.282959 595.128113 1555.053955 11324.242188 1388.125244 1318.926025 8005.861328 2414.551514 1328.928711 861.116394 1665.755005 990.478821 811.542175 1416.419312 573.918457 1701.069336 1726.557007 527.841125 1270.784546 1272.385620 1923.742065 1120.927124 1542.566650 951.189758 914.151245 1199.809448 1206.796143 873.630981 1811.588013 837.933228 1183.366455 1957.449829 999.362915 1476.834473 1129.944092 1197.890015 814.270386 1076.730225 1170.647949 1127.939453 1103.463501 2357.654785 762.828491 614.593079 1707.524780 604.587769 1728.776367 1848.059326 2136.618408 730.131836 965.346558 1389.924683 2014.302124 1450.237549 1760.608276 808.507751 1741.236694 1144.714844 1271.480713 2507.803711 1598.906250 709.032227 1814.209839 1608.809570 1377.620361 481.714355 1350.717773 1620.755127 1354.478882 2423.189941 952.874390 905.640686 962.366943 883.330750 1033.259155 1318.541992 919.064148 1647.561768 1828.536499 952.410522 1583.567261 937.465149 156013.515625 99404.859375 1537.245361 916.805481 1552.150757 747.029419 1352.572388 2301.083496 1067.253906 1430.695923 716.316711 2861.401367 1918.831665 822.519287 933.240417 4228.987305 1955.870850 819.493713 926.636719 1117.477295 2217.137695 535.760742 742.859558 767.178284 2198.183838 996.416992 800.159363 1798.494629 768.735840 1305.859131 1874.258179 1895.895752 882.350159 1181.518433 1527.390259 922.812561 1055.694214 1112.211548 1437.639893 1783.045532 1848.043701 1625.964722 2023.847046 1998.882202 1367.450195 1610.805176 559.789124 1318.806030 463.500153 640.106506 1913.938721 1022.908203 2238.986572 526.002563 632.418579 1113.862305 1452.109009 1371.797607 1615.074219 2273.968994 692.321472 1532.993530 1079.411865 476.838318 1904.843018 1988.790039 790.444458 1458.447632 1098.698975 1235.091675 1889.834473 1488.739502 1151.734619 2312.096924 1198.889526 1240.643188 1601.827515 538.791931 1137.803223 1191.465576 1472.180298 1479.803955 1149.973022 1487.426636 1125.690552 2036.250244 1615.028320 2048.909668 733.075928 2016.234741 646.626221 1164.469238 1672.573364 692.108948 1294.898071 2099.587158 1170.763306 1536.043335 747.572754 1238.674194 1686.561157 1893.312744 1038.143066 49239.136719 880.773499 1103.595459 1059.463623 9670.120117 1688.794678 1444.927490 1812.795410 1608.774414 1377.003418 1627.750000 730.072266 1180.454712 2135.786377 2786.535645 1227.969482 1627.581421 28958.394531 10399.644531 557.476013 1171.176758 1749.154907 1096.681885 1332.843750 2251.011230 1140.503662 1331.010742 17178.685547 572.898743 1955.806519 629.503662 1740.757080 1627.176147 1465.036499 1017.402222 1202.853760 1655.229370 1014.118164 11592.301758 707.079773 494.481781 1027.177002 1063.654541 1789.773438 717.118835 358.837524 1936.087769 847.067444 1932.874268 1401.348267 1699.358765 1839.636841 1025.074219 424.965973 939.593262 1589.362427 982.469604 1488.507812 2132.284912 1629.042236 576.067688 1788.223267 755.676819 1515.039795 1014.368896 1520.760376 791.079468 1513.108643 1888.914062 1851.055420 1129.205322 1576.119507 1640.163818 785.815063 1071.193115 1471.725952 1002.611206 1509.416870 1941.823120 1574.227783 1386.195557 787.697815 1639.275879 1199.394531 1952.161255 1510.278320 2271.997314 2055.258057 1114.627563 877.990295 1539.832764 1712.852783 718.693359 1348.400757 837.508240 835.154175 1165.812256 1804.709351 816.165039 492.975677 1451.515503 1170.666260 1420.842041 1100.065552 533.690857 911.051819 692.761108 2054.247070 720.915039 1427.465942 1510.548828 1317.646606 1312.775513 814.280029 1769.889282 1699.286255 1688.393555 1843.165649 1601.069336 851.421265 979.258850 1279.487793 1011.829956 1150.407227 1934.535522 1132.768066 1193.646973 1991.186279 1364.046143 1498.076416 1998.465942 1242.824829 1842.882324 1390.028564 1549.813354 1324.077515 653.364197 2180.880371 2169.928711 1437.604492 1510.631470 1525.042236 1299.648438 1061.705078 1159.137939 1390.595093 1555.545044 1729.212524 587.102600 1205.092163 1544.468140 148998.734375 1261.607788 676.527161 933.720581 847.853149 1098.221436 1881.184692 1299.882690 1923.779419 1855.209106 84220.750000 1323.813110 576.768127 1616.668457 1409.973511 1306.278809 1044.753418 952.153809 891.888306 1028.820312 1149.360229 881.625427 908.486450 813.682617 1282.275879 1840.669434 2606.998535 1411.274780 2475.345703 1804.423584 742.503052 1861.013306 1093.593384 937.881409 1772.007935 1398.973022 1389.013306 963.403687 777.664368 2515.763184 1419.987915 1260.068726 
convdwclip_12_param_0 202.523972 76.870384 34.086514 312.567841 96.468826 164.478729 162.728928 419.281555 75.018936 47.989346 182.330826 123.352554 100.773674 77.190071 102.836906 33.852177 49.535774 90.481499 138.688049 36.766212 42.070705 127.489639 84.762589 48.177467 39.441360 2104.511475 59.104889 123.172104 259.222198 182.075714 143.008057 79.789024 114.115395 69.619049 60.403404 125.017204 139.696045 135.903595 77.123787 116.873863 174.634949 138.887711 78.048401 55.154839 33.993160 123.309280 99.594940 414.500580 41.090004 88.688896 35.911369 27.813400 145.344208 784.395996 64.800545 80.479141 183.668182 43.669266 28.000317 43.394207 240.654099 48.370197 73.968605 80.335114 106.429680 44.957790 61.437801 68.208221 167.385254 73.189522 205.814850 36.851109 44.434589 18.873487 45.690876 74.821678 98.825241 123.837067 59.555882 50.641430 44.112709 346.179840 57.263645 50.568943 53.365955 241.091782 348.019867 124.557304 139.466797 49.789127 153.393295 298.827972 99.924675 62.621990 49.282970 59.194927 282.994202 85.036110 55.970070 102.403603 123.789299 54.428539 87.421631 105.343872 115.923424 98.025810 175.588226 174.633804 40.081509 67.411758 52.536819 386.319885 14.477803 145.642517 103.892815 90.493614 256.473511 174.153549 21.834253 62.378891 58.934547 68.600159 916.422913 130.639801 139.054474 104.909645 217.611252 36.320808 196.925064 251.012131 53.908875 174.036087 690.312622 51.537460 46.665119 84.710175 181.232239 50.232624 480.425079 306.331543 99.497803 53.127357 47.440994 2.257788 89.505630 19.909000 117.598160 139.622391 114.561897 38.437214 363.404968 116.255592 285.274109 265.107178 79.098465 230.991791 397.834229 60.678490 103.388809 51.352322 119.900055 192.653458 221.211533 80.097328 175.529160 427.854034 31.439428 11.554365 122.382706 384.185699 107.584755 117.754601 125.929573 41.140549 283.054138 34.183083 263.926331 6.628529 248.314865 66.035370 235.373428 17.574062 85.604553 132.555161 111.397629 86.962547 36.339073 104.456017 107.550972 91.578751 289.697052 53.915745 31.687397 96.580025 272.401886 52.951630 164.749786 103.402321 30.554441 107.034187 33.324875 21.162395 138.920227 27.739023 8.823941 126.300789 50.939381 159.915436 49.738914 151.224762 185.898254 160.083237 355.961365 59.278957 50.592934 364.223236 60.139576 126.498055 142.426102 198.396301 109.685768 115.056274 235.835022 99.794914 151.823944 149.689133 42.073772 122.752159 28.727314 23.475784 230.122696 123.574402 30.372389 96.062187 226.589783 159.569839 149.591476 186.456314 43.629025 38.316021 300.177124 276.773499 46.323994 412.811890 37.372547 52.411800 57.190987 113.822647 146.992935 150.697372 21.775574 108.981384 69.302536 164.449066 62.255222 124.300980 66.148338 32.335556 37.521809 276.100250 41.276062 33.573200 78.620384 261.315399 134.770554 201.858459 129.356155 106.535133 176.095535 115.316597 181.208206 93.986656 82.239204 109.541908 223.327911 65.832428 35.235806 201.145859 74.188942 206.100266 2957.608887 584.379456 179.940659 212.796631 164.412079 138.924484 98.219040 164.040375 71.596878 152.936539 198.482605 75.686386 26.820110 224.054749 243.208374 64.734856 36.664204 142.463226 201.566345 184.785934 39.243942 187.737625 336.102570 67.115585 37.116669 100.958916 236.230148 161.001617 168.074356 36.959385 240.675491 18.457512 79.388329 87.174561 168.716522 75.034546 120.198097 125.998680 35.574516 72.758820 107.925911 145.621658 65.072250 46.608734 58.931366 36.336666 291.935150 137.431320 391.801086 157.200165 90.868881 49.685204 52.194054 242.002975 317.097931 198.062897 68.564819 145.108475 174.172104 41.953236 67.946289 109.964180 192.403259 410.082184 78.855179 59.069187 284.706146 42.044353 189.170319 161.943481 93.915894 162.732147 63.881569 30.298393 210.549072 156.134140 62.679363 126.058891 191.885162 147.748947 19.184351 71.581825 100.489456 68.193504 153.410065 100.902756 73.314819 56.868694 164.348984 103.061157 159.018616 71.240784 99.152229 272.544739 100.606323 130.142288 59.153225 64.589607 207.879105 66.685913 42.700459 49.629990 149.671875 12.119662 268.118652 156.624405 259.835815 14.106939 56.635033 86.797943 224.095215 68.390594 35.241405 139.573441 159.990250 76.070068 112.249420 21.106075 45.251614 64.638527 30.958101 12.708885 151.984528 81.041000 136.056183 145.421082 188.012527 86.390785 201.021225 84.922684 16.681059 260.836487 144.020874 316.235443 80.773605 41.013817 80.327820 155.720001 207.037003 31.734394 135.886795 30.483599 219.777161 341.325562 162.808411 73.747902 7.397366 146.037979 382.035553 63.059807 123.651108 35.931995 97.586288 63.319664 62.312386 95.078850 349.171417 104.108681 40.582443 143.670837 151.714996 23.127880 45.345844 116.186493 64.002213 195.872330 249.161285 98.727921 55.206100 322.893860 127.374771 56.781116 46.709686 92.476036 50.511913 76.595688 146.903839 137.687790 103.687057 253.610245 81.260185 57.635754 118.886726 52.115307 205.451004 169.376450 89.411659 37.825687 77.050766 39.101738 135.634186 127.485016 180.704681 62.673756 198.728363 294.532928 111.993408 216.299469 251.766769 89.341705 45.992065 160.369858 468.181702 113.816040 115.776093 80.154274 102.648415 265.855560 70.880020 107.058395 29.106810 194.831726 60.473721 49.631138 50.493908 93.990669 167.099411 55.692356 124.870361 26.926863 127.103378 121.927345 172.048828 163.520126 32.710022 69.494087 145.257629 59.913673 72.254486 148.213135 32.524139 119.440498 67.362770 48.076599 38.565681 23.622232 49.472691 40.120998 100.719307 84.627975 128.261108 24.691242 78.256599 103.820496 57.808243 78.271355 283.869507 93.548721 49.866535 135.368744 36.285423 374.954498 106.184692 93.515602 1706.406128 108.436684 329.368164 96.181549 211.777252 154.447495 29.567854 65.029747 98.072639 54.481426 1646.160156 56.900673 348.228912 144.810837 180.252869 108.975845 138.824051 220.722198 133.648987 83.741295 91.513412 111.255005 253.812958 278.244354 35.876789 52.219105 9.879179 164.604980 89.731651 54.618210 103.911453 21.755510 79.232323 213.325073 27.498028 47.281727 65.687325 112.492310 151.753494 130.821228 88.119690 95.306877 
conv_25_param_0 428.912354 340.062256 494.846222 807.212402 420.339966 299.176056 742.968689 401.800934 645.243286 392.471436 546.392212 414.034149 453.987671 654.978577 380.569916 308.267181 317.198547 568.966919 347.581177 389.810730 432.578796 298.304016 580.997498 415.952881 546.916443 419.348938 658.581116 380.086700 745.763733 494.230896 434.414764 433.304077 366.517426 371.885864 628.430603 756.132019 347.981323 354.337799 372.789185 361.907379 1567.729858 431.126495 365.586975 421.958832 440.369354 644.417786 411.604248 419.370270 451.450317 477.299072 768.518555 399.961548 594.149963 285.135864 279.742126 344.562775 447.700104 844.977173 376.793182 402.411133 510.343262 449.324493 465.405182 525.509949 735.367493 598.891541 381.444672 619.234436 564.586975 423.295593 406.218506 287.590210 607.250305 482.576965 481.427521 330.017944 374.151245 337.653778 758.919312 1018.793396 406.848206 259.608185 332.474548 433.596588 463.539825 388.571716 268.516632 421.415833 562.767334 517.632874 342.690399 568.986023 389.154205 586.459106 339.945648 380.375153 
convclip_14_param_0 3752.343750 756.754089 1432.502319 1470.155518 2062.093262 845.255859 2258.062988 1960.119629 2073.792969 2077.609619 2073.397705 2128.489258 2690.901611 945.216980 1788.341187 2236.047607 2387.830078 2021.587891 2382.562744 2007.912964 1875.858032 1637.718750 1023.345337 1877.460327 2122.007568 1985.869995 2502.468750 1747.600830 1048.742798 2494.676025 2341.186035 822.327026 1761.984863 1774.039917 2910.919189 808.533447 2152.840820 1741.108398 1458.141968 1878.869507 2864.907471 1602.293213 1406.295776 1830.259521 1503.944702 1623.150879 2237.979492 1431.869507 1577.276733 2546.053467 2647.926514 1705.000610 1773.502563 1610.327515 1755.067749 1894.032593 2345.035889 2555.162598 2274.244873 1844.475220 2057.275879 1712.075684 2286.528809 1769.108398 2954.340576 1714.853394 1731.408081 720.049072 2094.580322 1774.017822 1241.035034 1548.310181 1638.846069 800.644836 2498.220703 2560.619629 2099.953857 1861.195801 1145.891602 2087.187988 2071.207275 1832.120483 2071.946045 5341.708496 2008.731201 2006.470337 1943.670166 2000.375244 1796.093018 2237.348633 1717.300659 1327.234863 1998.404785 1943.311646 1911.487915 1340.141602 2281.245117 2047.581543 1539.594849 2163.602783 1635.605591 1831.046143 2107.035400 1716.145996 1976.148926 3145.845459 1248.226074 1076.216309 2500.924072 2569.857422 1661.564331 1709.844604 2667.966553 1509.026001 1748.585571 2577.137695 1739.724854 2097.008545 2245.083252 2159.164307 1412.243286 3206.755127 1721.515869 2500.122803 1511.146606 1216.535889 1904.280518 717.035950 1728.220215 2303.117920 2104.567871 2334.860840 2411.004639 2185.564941 2260.609863 2724.271240 1977.771118 1945.534546 2536.855469 1885.676880 2129.212402 2029.696045 1588.296021 2891.377930 1564.108521 2046.224487 2715.789307 2327.434814 2212.101318 1548.996338 2269.146729 663.830017 1823.409302 2265.957275 901.495361 1645.647339 2540.867188 1898.099121 1274.132446 2319.612305 2055.380615 2014.175781 2014.997192 928.800720 1864.875000 1354.262573 2156.849854 1428.142334 1665.296143 1973.358521 2329.013916 1258.311279 988.616577 2027.202026 812.297302 1824.491943 1376.407104 3189.200684 689.306885 1876.379395 11342.299805 742.123474 2068.926514 2467.931885 1959.729858 2314.149414 3060.086670 2228.764648 1935.394897 2494.542725 1061.857300 2764.620117 1970.410767 1798.237305 1572.989136 2117.347656 1669.950073 1019.971558 2209.882080 1509.605835 1296.896973 1383.690674 2452.379639 1589.234497 2277.194336 2092.628662 1172.590942 2090.530762 1018.628784 1818.938721 1744.580078 1395.185669 1071.104004 2798.404785 1679.510864 1581.068481 2416.487061 1433.820312 2227.213135 2060.842285 845.282959 2221.228516 1327.224854 2244.599609 2019.175781 1784.314209 1748.439819 1680.786255 2036.098389 912.635254 1850.903931 2380.305664 2072.213135 1539.431396 1243.644775 1046.971436 1875.622070 1698.309082 947.562134 1002.047607 1713.030029 1807.136841 1288.978882 1977.365723 2136.254883 2580.770264 761.581787 2463.835205 3027.226562 2179.481934 3354.204102 1303.095703 1812.741577 1390.841309 1615.074097 3231.026123 2324.320557 1252.271729 2476.156494 1837.366455 1540.253662 625.479187 2427.976562 2007.490479 4889.270020 1731.847778 1510.219360 3502.259521 2424.149658 2040.367065 1446.647583 2173.721191 1763.941406 1817.981201 2239.004150 1904.219727 1720.685791 1969.265747 1304.047485 1558.710083 1886.347290 1722.542969 1664.697754 1934.118774 1131.094238 1964.572876 1637.577881 1910.510132 2361.196289 2039.494751 1399.352783 1715.631836 1646.529785 1765.419922 2512.303223 2145.958984 2235.588623 3568.634277 2481.572998 727.180664 1814.074829 2014.028687 730.213135 1637.285156 184578.140625 1671.496948 2057.917725 2236.759033 4006.188232 1623.641235 2208.580811 1938.354492 1822.881226 1860.271973 1696.060425 2338.466064 2131.465576 1946.772217 1608.499878 762.204651 2663.738281 2212.661865 886.097717 2074.858398 1929.777344 2577.094971 1961.583130 1947.636597 1972.906738 1733.619019 1831.968506 2055.338867 2184.753906 2202.118408 4036.138428 2083.031738 2059.495361 1519.923462 1774.155151 1145.339478 1452.388794 1084.034058 805.941223 2061.334961 2615.643555 2059.202881 1357.948242 2250.898438 2266.141602 2196.052979 1632.653931 936.327393 1206.622070 2072.832764 2012.300415 2144.741455 1307.273804 1625.692993 1096.541504 981.751526 832.742004 679.612671 1189.983032 1981.651733 827.373108 2034.970581 2050.829102 1613.549438 2103.690918 1254.877563 3636.199219 1429.543945 2339.786865 1075.599365 2482.333984 1051.889282 2184.204346 2308.639160 2238.777588 2252.224609 1864.176147 2750.427002 2847.765625 1465.791016 1686.123901 2159.996582 1976.703613 2113.524902 1709.383545 2202.473389 1873.391602 2820.702881 1946.176147 2468.577637 2384.101562 1751.881592 2549.999023 945.415649 2102.003418 2083.656250 1883.964111 2372.401367 7684.062500 2208.237061 2298.425781 2126.038574 1061.805908 1642.298706 2230.950684 1554.986084 1433.593750 1295.906128 1535.880737 1800.718872 853.224121 2058.270508 1419.585449 2047.652100 2596.197998 2040.776001 1149.731201 688.077393 1032.168701 8676.214844 2262.677002 2203.177002 1602.685059 1770.311890 1489.387207 2022.986938 1578.319214 9883.308594 689.348572 1986.606689 1746.119995 1864.770996 1974.838623 1788.027344 916.106934 1784.271973 2119.981445 3679.615234 879.732361 1700.864380 1670.049072 3301.218994 1570.840454 2016.467773 2252.571045 1198.935181 1502.983276 756.321716 1436.415405 2557.601562 1316.389648 2530.381592 1499.350464 3097.643311 2069.974854 1078.574341 815.303650 1272.073730 1743.911133 1448.286377 1522.244995 1304.955078 1868.318237 2035.249634 2112.001221 625.478943 2470.535156 2056.648193 2021.505981 801.096680 1789.149536 1726.288086 2058.045654 2225.352051 1780.478271 1644.136230 706.962646 2270.979980 1886.202637 2157.707520 1578.399292 2011.602905 2321.944824 2221.304932 1601.258301 2067.861084 2254.766113 1827.585571 1463.774536 1735.877075 2234.918213 2313.859863 2513.432373 2001.706909 1694.467529 1359.873901 1696.965454 1821.235474 1390.093506 1939.308594 2923.257080 1588.234863 1963.852661 1658.832642 4560.573242 1531.121094 2498.433838 2305.418945 3352.247559 1487.438477 1266.466064 867.603516 1677.675415 636.235474 1233.677612 1448.090942 1803.327271 2068.758789 2078.608398 1944.487305 1452.206177 1889.542114 2473.102783 1761.408447 2360.297607 1657.491211 2031.026245 2348.657715 1551.004517 1773.672974 1514.673462 1243.827881 2785.519043 2200.489258 2176.225586 2274.645752 2031.050415 877.961243 2059.495605 108316.664062 2161.386963 1755.484375 1786.059448 4116.096191 988.739868 1934.163330 2080.301514 1627.799561 2293.628662 1829.757568 2370.007080 1211.535645 2544.175781 1735.100708 1160.001099 2007.341064 3189.822021 953.784729 2797.844727 587.232788 1661.402466 1525.840088 2307.885498 2774.932861 1893.049072 2009.856567 2450.634521 2214.227295 1544.171753 1796.430298 1555.949463 2114.343994 
