convclip_1_param_0 7348.317383 60.107960 84.940216 277.047028 822.710022 393.784119 73.195869 685.349609 66.068756 27533.476562 174.056549 625.886475 58.969257 83.205688 18740.289062 20379.210938 6944.948242 41460.527344 164.904388 317.223877 331.525726 925.443726 44.898998 33095.660156 463.939819 66.607849 492.949280 261.334015 277.905762 210.984467 139.881088 682.763550 
convdwclip_0_param_0 174.877716 53.966728 20.781902 23.362896 28.491804 17.042509 31.180189 31.085344 38.497154 12537.273438 106.570984 30.122555 54.549191 87.957962 18600.882812 14359.065430 1198.717407 5454.795410 24.884924 39.318661 36.663677 91.746719 112.539421 8553.652344 41.212334 24.493549 4.510586 83.227127 98.038231 775.468750 67.888435 47.060715 
conv_1_param_0 199.496185 219.835052 218.993683 196.201981 205.352951 259.130493 166.443893 220.149261 186.264130 188.439728 190.930130 227.437531 324.110626 263.553955 169.026718 351.949890 
convclip_2_param_0 102.457062 117.202972 598.034790 484.838562 1382.964111 456.656921 456.191528 176.649017 185.878433 256.039703 232.529297 420.425964 488.687622 730.792297 1329.765747 200.827133 444.659576 427.674103 399.645508 784.232605 527.313416 480.664825 336.586426 269.362427 345.957611 361.436676 1227.453003 638.998169 322.912018 337.523193 156.191055 1229.878052 640.805115 253.134048 243.642044 756.937805 332.664062 485.178253 403.036224 163.694321 178.541397 260.743835 1182.250732 327.472382 561.047119 151.899796 696.363342 697.373413 850.151917 588.307983 489.884583 262.472992 232.646286 137.345993 337.390656 366.937775 100.839897 606.561096 462.378052 435.475006 301.091431 248.560623 1206.572998 842.229492 133.252090 1015.835205 781.860474 313.396362 228.021637 274.716370 369.900208 252.117020 1747.402222 373.534790 787.375732 443.000000 634.955383 193.401199 620.313782 256.272278 232.966980 646.294678 873.467041 171.576981 484.687286 102.557045 691.836487 159.670578 434.398163 1777.117554 335.018372 257.716644 108.717026 162.410065 337.192474 405.714172 
convdwclip_1_param_0 363.420776 456.514923 129.982529 236.342667 101.872040 183.577652 327.485962 222.501404 433.190918 108.753021 229.891129 290.094727 134.998932 114.839439 58.206856 263.053711 79.350967 222.055054 205.842484 207.974030 221.998810 108.855247 136.136780 90.229225 218.439804 350.703766 62.473045 39.442154 424.951813 369.677124 297.098206 73.697372 91.490005 665.144043 500.216370 96.164696 328.586243 152.410995 191.702057 673.799622 381.676117 426.020477 77.701126 203.796539 116.803406 529.744446 140.477112 107.235298 63.364994 134.495331 25.053972 838.752625 171.221786 417.000824 285.115448 137.186661 1773.858398 224.327881 163.358627 278.707550 308.766479 349.164398 129.471481 121.481590 297.212006 104.769760 76.066200 355.662903 359.798035 299.882507 289.706757 203.516556 43.973171 195.078812 212.369507 466.876434 161.445831 639.257996 151.086731 366.591278 116.225136 315.759064 198.968933 828.461304 350.740326 708.358887 48.090687 686.993835 255.799377 54.621071 223.425003 156.841888 1242.304688 558.838989 412.765747 214.056046 
conv_3_param_0 302.935516 317.475311 274.127808 352.099945 363.295288 439.099609 348.468109 286.874023 238.026031 345.893219 284.676697 211.913116 239.979706 285.150146 236.939209 198.991013 204.761917 258.287048 266.037567 332.385193 294.733032 306.740875 329.132019 312.451721 
convclip_3_param_0 189.736191 1629.536377 376.045288 247.515808 664.507568 335.795410 704.256592 389.030029 686.570435 441.388977 603.460938 251.285065 733.779297 361.317535 519.754395 144.340576 859.078125 362.739166 763.695068 1222.615723 723.441345 945.467590 493.220215 139.382935 772.141968 746.926025 171.286911 525.041504 776.704529 573.190063 677.513428 1282.571167 224.957504 161.613693 752.521606 261.663574 256.911652 433.999634 420.844696 452.611053 285.802002 976.954834 880.122620 659.847412 792.450989 550.643005 1220.382568 774.461304 381.295929 223.591782 301.233215 255.455917 958.429932 906.963684 1353.013672 2388.627930 762.360962 328.239014 231.263702 852.174622 448.179901 281.751190 319.277985 431.170227 228.875580 111.885040 142.126663 884.620300 801.543579 836.030212 843.107483 128.338440 733.202820 1115.371094 342.725220 750.166870 258.987549 182.369461 260.397552 963.419556 294.425476 1376.343384 228.606369 5526.662109 938.031372 919.202026 163.146286 1102.287598 534.087708 988.871887 660.053955 1133.818481 234.244644 739.587952 272.565704 568.654053 390.011688 683.398254 116.033173 516.453735 537.716919 321.563416 462.598083 474.572388 367.563873 279.436127 1372.324097 787.788879 363.330994 481.880280 1954.113647 347.231689 691.054138 195.513977 391.190643 1077.540894 420.713440 520.027954 388.117493 242.985870 1055.585083 843.892822 993.207275 1237.914673 682.306519 697.349365 283.557373 435.154602 1085.005005 309.794739 874.672729 515.892883 148.461319 459.858124 758.379456 923.758606 1103.209106 636.169800 1128.949219 551.450256 263.424622 653.270752 870.755493 435.145264 
convdwclip_2_param_0 187.934525 33.572269 265.469879 156.009659 57.776493 136.914841 56.900600 143.676834 52.648529 94.279854 64.685860 209.651230 140.429428 83.822754 97.005852 216.273636 116.447723 129.007980 76.981071 43.673710 71.028229 38.033310 112.199936 232.373688 32.764336 37.841114 201.925888 95.249702 111.340607 71.705757 96.710632 86.097755 85.124313 121.345711 45.501530 154.104431 137.884933 137.055161 28.988390 38.855885 128.048096 55.135155 56.761013 104.382362 54.100578 104.159599 48.264130 78.046875 154.501389 156.858185 288.005707 157.846649 57.198795 75.319130 67.595062 6.837547 45.733238 137.679138 551.420166 84.493301 124.538422 298.729980 470.582123 149.792618 138.447495 208.667297 254.542801 44.920143 71.008980 56.684742 90.984558 196.489380 84.051186 53.835300 232.620178 75.773750 188.737823 141.469879 266.165741 108.530197 254.203796 77.651543 326.073914 3.710318 51.112286 46.581085 225.026474 51.935230 105.562271 84.035332 36.809052 68.847382 205.103851 64.158119 270.776489 96.690849 118.026276 70.691231 117.014229 126.948410 68.315338 225.971085 102.090027 115.938942 289.785309 105.477783 71.499939 65.540375 112.571198 93.880409 97.758110 123.342148 81.158699 142.170639 53.710915 47.106667 230.059631 91.904266 97.300278 156.190521 75.657883 208.045151 85.522430 31.609671 88.803764 64.435890 124.940994 85.540833 40.397282 74.181450 75.688652 87.821564 134.519409 66.233521 77.046539 59.620960 39.299335 125.399727 55.801514 205.570145 133.343323 180.511536 7.828119 136.233414 
conv_5_param_0 232.066193 222.808487 228.676315 307.934753 205.595139 221.742386 211.658356 353.199005 352.961884 268.663300 183.335419 249.981186 239.820099 217.723099 252.353149 334.733398 365.276855 206.135086 366.255341 368.081482 363.780334 203.297653 223.296127 170.710251 
convclip_4_param_0 571.406006 1351.682983 553.588074 1419.900879 225.143753 384.421143 782.581177 382.450867 649.300049 381.875671 787.373596 740.191528 670.864929 414.799316 551.093872 910.912048 273.849792 496.992126 284.174683 646.514099 625.841919 1036.203369 647.402161 740.414368 416.496124 1681.632568 1384.385864 650.205200 575.099121 768.964355 827.745789 382.393402 1522.740723 735.327698 519.509277 571.683411 270.971558 378.708984 405.402985 575.239563 634.587952 450.175110 737.977844 634.048096 408.374512 422.124634 1069.988159 612.975098 643.611572 537.437378 352.208069 264.520081 214.345673 572.802246 340.843018 1471.769409 1044.108398 817.830933 704.785095 2195.397705 359.232452 370.161652 2260.859863 2051.337158 1060.926636 579.575989 315.538239 642.376160 515.413940 646.548279 1276.217163 468.742584 612.807007 527.970093 735.302856 299.367004 867.395752 378.411926 938.014648 1306.938721 341.542114 1369.361450 1588.548218 579.485779 1077.723022 1444.617310 2040.760742 573.780212 499.214111 845.361206 510.833771 362.037567 1243.578491 677.868774 849.976257 1303.165649 1049.674438 997.847839 1291.043091 553.780090 589.360107 3564.770752 762.917664 488.332764 800.954224 498.130554 1194.551025 1771.060913 1414.450806 420.321442 1571.318726 398.944061 812.382080 416.872284 1156.870483 2556.392090 754.388855 617.617371 1816.587524 1201.141235 2069.866699 470.476562 2109.761963 673.580078 624.072693 641.438171 851.866760 494.554962 1988.540039 341.875519 489.483551 2278.029541 520.950684 441.081329 1208.389526 1566.283447 712.992371 565.377991 224.295151 932.677734 1602.666138 345.361420 324.225891 500.336548 
convdwclip_3_param_0 308.635895 84.597191 361.976501 215.670929 779.109497 391.898163 297.845978 388.006927 327.767883 430.360382 213.058838 165.061844 226.508942 196.744034 339.713654 170.140396 572.458374 576.364380 345.322998 235.502151 214.856354 185.943954 142.179504 202.680511 181.790085 139.894196 86.122910 556.740601 241.903839 188.628006 321.860596 448.326965 173.072998 204.812485 149.894119 339.906128 456.462067 799.338989 363.815796 192.694839 204.481461 310.928436 211.221146 340.197540 250.548904 607.993958 262.493225 218.227036 131.470871 245.012146 452.164856 743.823242 377.045654 182.254288 651.468140 126.358330 100.891045 361.000916 235.198624 96.169266 462.440796 602.534790 82.561859 94.220100 96.891266 264.153992 880.677490 225.078888 173.330719 150.668350 314.889099 322.827026 179.884827 510.511017 99.430443 470.480286 233.563995 332.847656 111.912666 148.303986 291.720337 96.707291 132.101227 181.159058 260.113678 121.492744 148.845627 231.955383 193.811508 116.714890 208.752884 490.749329 133.902054 137.649551 126.836700 149.767563 316.084320 132.791183 204.056702 370.812805 208.015854 59.466503 291.015503 420.208954 204.253387 202.936768 195.437668 106.333260 120.436012 392.814758 165.138474 371.080139 75.850494 563.252502 133.449661 114.879822 252.589203 350.273224 112.359344 234.698563 90.995506 413.738190 110.253143 297.481171 367.377197 169.697571 199.221024 334.917999 144.636978 449.969666 473.130219 86.157555 300.041168 410.447021 250.403656 142.778275 495.479889 165.386124 479.053955 285.461914 223.807983 401.019928 751.002502 210.813187 
conv_7_param_0 300.683746 259.016937 249.282928 449.363678 350.825897 189.990097 363.942902 340.110504 408.245270 298.063232 381.316986 284.056854 296.072784 352.654724 314.153992 348.588013 409.926117 363.250732 316.549377 357.702271 371.403107 400.323730 402.085297 355.047852 295.324219 346.186829 446.378815 428.250885 396.767883 373.091461 358.307617 373.892151 
convclip_5_param_0 1060.358643 626.284973 1059.721313 478.781219 813.675720 1097.783936 1156.355469 803.737305 4699.755859 592.896423 1005.096436 695.763855 1561.233276 1241.953247 734.226807 456.115173 663.790894 1525.425171 371.764069 1434.270874 1790.361938 1277.256714 549.571106 1186.241821 1069.587158 1425.567749 21034.302734 1072.557983 994.237610 706.090637 533.640381 1130.478027 647.270020 818.061279 1413.250610 1653.375366 1930.659302 909.923218 1213.566650 865.940979 928.987915 1360.794434 1965.370605 1192.632202 355.704834 1567.437256 868.796631 1402.874756 1960.797852 978.024353 1172.301758 1216.043335 1318.876221 1260.997925 1331.432129 1786.817749 798.343323 469.197266 902.115234 1286.259277 1323.746948 567.569397 950.191345 1453.074341 340.545013 1119.523682 808.225037 1676.507935 232.418121 455.139404 1572.744995 616.676270 461.778839 871.954407 458.390930 1712.732666 807.110229 1197.147461 889.956726 1006.252747 579.245850 479.000854 283.968933 1854.979858 215.127045 526.043945 1805.558716 720.663086 588.272949 1579.047485 179.311630 1066.819702 1243.066528 1537.339355 639.307434 388.762146 1183.590698 1539.211914 1225.199707 954.650269 582.885742 1207.877563 1572.132935 775.614746 1165.182739 587.295776 491.955322 1028.135498 995.919800 821.595581 1247.911865 817.683594 634.136108 918.144897 959.514893 918.728516 425.455963 1253.654663 783.058716 1170.744385 942.412537 1022.394592 252.451187 236.437973 690.714905 1044.339844 583.850769 871.793396 1248.454102 722.957581 1405.341064 1866.952637 1081.224121 1958.418091 1224.433960 802.533020 1336.375610 902.533569 782.907471 2151.647705 1259.282349 276.101715 466.020935 2177.936523 1439.193359 280.100037 450.144806 1385.332520 1277.549805 1098.826904 1883.751099 1224.981567 730.569519 1184.458252 1001.693909 685.107056 679.571411 1656.442871 1021.467896 858.677856 419.894104 1169.027588 1969.419800 1058.227661 693.334412 817.146423 287.411926 489.431824 988.343140 923.293335 1018.043335 709.998108 416.014862 1658.917725 869.625793 947.915466 2423.229736 949.646301 398.598816 933.064087 619.803589 958.323975 872.834717 1331.095703 1216.420776 1082.206665 2115.973145 1555.371704 1683.580688 453.934753 1383.504517 309.206604 
convdwclip_4_param_0 65.271362 191.812485 139.079361 305.027252 56.224579 66.178322 90.623222 157.120865 15.504483 29.260761 76.612160 47.478779 54.870743 122.385361 66.322571 112.798279 63.959270 81.691795 212.492798 59.092594 65.785652 31.308699 63.796944 71.176994 151.580536 56.327690 17.998068 126.288544 61.615765 130.576431 413.669189 65.479454 32.353043 57.122387 80.915131 76.634514 79.982948 41.262436 122.799500 124.080559 165.073975 35.510975 45.055962 148.043976 194.627808 124.493454 56.711472 71.690666 58.452259 134.381531 115.542358 74.580368 121.824821 763.504089 79.199890 58.567863 89.973579 72.601936 106.076622 125.601875 57.075047 76.705208 72.622429 89.436195 157.331299 121.422577 110.159210 108.473892 196.559387 72.807434 49.775730 71.332809 319.391663 315.755432 166.917862 62.338638 96.009628 101.081238 176.590652 81.837662 160.253662 458.258026 281.092651 32.409073 311.477631 230.580719 189.563843 208.714706 226.937210 70.201866 397.558716 21.315239 65.788612 53.056675 247.062439 336.198456 62.950054 49.110390 113.202217 104.361534 127.894936 84.931221 115.897186 123.967117 44.532482 406.667206 454.926056 100.042976 49.087883 69.580994 174.797424 126.386238 185.664413 130.716614 110.871010 147.758804 104.138908 113.235985 67.052689 87.787285 119.964455 53.766670 332.624756 165.766144 59.373016 173.871002 281.043121 58.601963 124.260979 109.706802 74.471939 61.447830 91.403702 64.813446 84.889053 47.959599 61.080170 95.771439 68.692146 101.911659 143.133316 356.094513 202.563614 63.769390 85.876221 274.943878 175.392456 70.719177 114.260399 78.899284 55.340401 59.908688 171.684326 57.476128 118.584267 251.662979 49.271221 78.756378 85.162354 146.207367 112.051765 48.962372 31.968338 48.621891 98.408539 118.767479 574.599243 91.151703 50.546951 56.792377 94.083206 49.289032 88.209343 34.056679 120.676605 81.559715 55.685047 30.568905 278.667542 82.562881 51.488968 128.211441 113.135178 85.177345 75.620506 47.351364 70.759201 57.224667 80.131027 163.513351 66.796654 273.278656 
conv_9_param_0 437.938843 448.530029 304.893219 364.300964 235.665726 341.378723 396.249786 247.824799 424.146698 289.794159 216.784241 431.255554 468.310486 254.503876 375.833893 275.485504 226.182434 363.697998 400.226929 256.136322 264.100494 692.772034 405.119476 229.223129 300.567261 422.090912 298.989197 349.873352 428.139069 210.267853 292.104950 241.793045 
convclip_6_param_0 1650.877319 1421.305542 3361.033936 2590.333496 997.914062 1156.211914 41119.343750 378.410400 920.752197 2286.064697 976.690369 810.080872 479.015778 1634.041870 911.697815 1327.430786 595.813721 1213.482300 509.904938 602.626709 1509.165771 363.656494 405.261475 1318.380249 979.284302 569.270203 874.784485 1012.237427 662.584290 1439.292358 721.824524 886.317993 1259.440796 533.099731 1558.376465 873.934753 747.141052 377.534485 783.332031 2345.601074 1222.903687 759.608826 2009.075684 2542.879150 706.703735 767.037292 1852.054199 352.679108 1195.074585 539.696777 806.650085 554.305359 612.894775 470.085846 1555.005371 1061.631226 1232.230957 1497.238281 908.262695 682.075867 1150.876709 1458.711670 1984.391968 771.289062 743.800781 3745.419434 1383.378540 713.109558 356.504089 1831.639771 310.508514 374.724518 1054.747437 943.108337 453.736115 1540.325562 5300.836914 1092.747070 1832.959961 885.494629 1950.191772 421.630188 1402.765869 1011.712830 1039.810669 1134.994507 1284.646484 1665.134766 1428.280029 413.250000 1728.348999 1366.782227 845.756897 415.442291 1598.798096 3841.563232 767.518738 582.587280 760.802673 949.548340 771.544434 1120.726929 1233.625610 1046.352051 568.159607 1906.545532 987.756531 1178.584473 2012.966309 937.933716 917.281494 906.301208 707.261047 1465.430786 886.602356 1655.304565 1567.479614 2325.760986 1557.299194 2428.101807 1148.739136 1140.569702 1065.769165 2396.953125 1332.598999 1595.518433 816.654480 1015.572388 895.505188 1095.234375 1421.194946 2326.047363 603.604187 1231.854004 673.466309 1015.988403 683.755371 616.219238 1951.296631 7493.984375 787.126526 1706.685303 1025.114136 957.317139 1397.841553 1566.614136 1779.449707 627.037659 1433.865723 2405.525146 563.115784 1424.468750 292.986023 1388.225342 888.231262 581.531555 770.680176 405.145752 1082.775513 1079.211792 1868.275024 1128.173340 620.968506 1032.399170 808.481262 1321.779419 1032.511475 1087.996216 645.390320 1102.369263 1002.257446 1552.535156 975.068115 759.005920 1030.704590 807.685242 2041.331177 801.323059 692.809326 1213.620972 641.038086 419.833374 1252.596802 488.745758 212.245102 1357.430908 456.724121 1481.741821 308.810059 493.116119 537.035583 1316.464722 
convdwclip_5_param_0 102.677650 105.105293 42.057045 33.679241 336.768341 158.227463 3239.203613 425.916016 113.657547 63.739262 123.401489 91.424019 124.372940 140.389603 154.473526 140.398834 109.934563 64.620316 242.912216 199.701202 86.283318 171.135651 272.130585 88.105553 78.076668 195.245834 98.191170 176.622391 131.386383 128.631409 234.492233 139.456207 138.745209 554.410156 96.101486 88.649811 61.559933 227.391464 255.631058 84.196518 95.065628 188.929214 58.674080 52.739250 170.965698 271.918549 64.594902 171.585968 111.768806 280.281952 157.673950 94.806175 272.123138 215.940384 102.752487 140.915024 128.520569 96.757278 131.621628 161.017822 74.505325 56.585735 45.268467 174.002014 322.166351 34.548443 175.242889 338.352417 269.662292 136.910248 181.278671 447.215424 63.423916 48.202892 179.213013 59.455509 25.413298 245.143524 110.472984 147.128586 48.258434 302.580200 113.685165 89.633278 106.515694 274.156464 134.460327 95.098846 104.875603 308.321106 113.338905 68.090149 130.943375 217.353394 36.894096 32.258739 90.737869 328.930359 48.228348 91.552101 234.883469 197.882492 123.662376 27.514683 298.842896 99.453346 124.610451 56.896374 80.001968 76.528542 82.284286 243.185165 182.986221 104.457054 96.651604 119.031990 76.205612 50.083954 33.698215 28.552559 132.955597 121.382072 100.229408 76.874115 115.915565 71.984703 193.325317 62.913837 269.798431 77.101059 69.707672 72.303963 88.304428 32.863556 184.727371 117.392677 93.819183 139.884750 46.642231 32.044975 92.188698 315.570740 80.360954 187.953781 93.707634 115.566856 121.875191 330.731506 111.225441 65.028358 111.928200 72.071411 545.632507 68.454628 129.573929 24.390863 238.154587 262.804199 73.201256 78.489845 92.552200 94.206360 150.760941 35.524010 249.783524 98.015038 176.755753 165.337097 172.683395 55.880112 108.170219 49.818584 133.800369 120.054085 60.488285 68.300491 56.445896 93.840103 217.183395 121.565750 213.574463 244.308746 106.492790 304.405823 517.915588 96.599564 286.873566 145.982056 220.457611 255.387238 76.104393 101.539543 
conv_11_param_0 347.417084 453.568329 269.530579 428.926880 269.803711 265.661560 376.848755 356.932159 442.892822 211.062531 244.351410 531.082153 265.775146 316.769958 283.013550 290.212524 295.752533 255.373077 393.604462 205.235931 276.359924 371.825958 344.135590 283.254089 301.060211 320.673645 245.161926 316.476105 375.370972 239.210724 312.296173 264.259857 
convclip_7_param_0 923.043152 709.483093 906.511719 920.099731 1556.401733 2276.869873 1547.468140 676.940918 696.757202 1051.206787 1159.350952 588.017578 874.626953 648.755737 1228.558228 1285.589844 734.128296 981.817017 1242.644897 443.248871 647.174011 773.454346 2656.472168 828.372864 523.446167 1373.116455 970.120911 941.156128 1268.848389 1320.342773 526.527222 277.072174 1011.513489 449.204193 1148.521118 1243.275146 1146.504395 1035.866211 909.931946 660.713440 1113.736816 2054.810303 1771.523560 586.352966 1441.503906 689.136475 1578.189697 978.515564 1701.067383 1781.204468 666.735413 539.346924 514.507446 2583.156494 331.240845 1632.375366 736.473572 1105.976685 1125.334473 885.060547 460.639313 1235.662842 1027.076660 1186.528076 438.679626 709.604248 924.123596 1034.635254 865.666931 14327.773438 542.595886 885.085083 779.604492 434.583069 1007.125488 1184.302979 2741.621094 597.222107 4377.327637 1112.035522 713.853394 931.471252 1259.247192 1366.318970 385.252838 1337.247192 1249.718872 1122.842041 917.201538 766.813049 906.043396 622.012085 875.122131 1285.247925 1036.861084 949.590210 1208.928223 221.537674 992.965393 462.297943 663.147705 1703.793457 1381.098999 541.077881 1208.721191 999.157166 427.082062 1561.625122 637.188293 445.795197 1702.500000 710.532471 408.819550 1131.071289 978.021301 754.525208 842.503784 1123.365234 434.776947 952.773315 781.962097 885.282349 1229.764771 1402.899292 802.011292 658.554016 1287.227051 891.352722 495.798157 528.729492 930.286560 1134.746460 1048.214844 361.327362 637.464600 1824.392944 519.906860 1184.079468 927.375427 2713.210693 1229.322754 1559.259521 1964.293213 1174.187134 703.900085 787.549133 384.201324 466.112885 1274.173706 1662.433105 839.129578 676.659180 31544.593750 775.996338 1538.569336 556.476929 1457.153320 646.800537 519.101990 641.934753 896.341980 718.053589 1392.640137 1433.785522 340.639160 635.275208 950.993103 822.991882 423.346405 466.889832 1015.821289 1696.606689 1592.564209 965.375793 895.499634 791.606506 713.116638 646.714722 654.627319 630.898499 1385.883179 697.929871 593.346741 1427.274048 847.515320 950.094177 1005.584167 1211.231934 744.366211 828.786133 1085.728638 725.455872 
convdwclip_6_param_0 170.521942 189.366165 170.081177 126.363289 243.090225 196.673660 147.244919 323.424164 421.534882 214.856354 215.251328 394.343567 332.056915 411.581818 299.792542 102.135536 427.545685 154.062683 200.741638 431.582062 249.861267 342.678741 208.710419 101.583153 410.382233 148.003418 286.536499 173.234573 126.771347 83.477234 702.082581 522.011230 146.507980 702.172913 121.719803 131.362396 187.331802 139.311096 219.544998 507.066986 302.456848 130.354858 63.797379 274.357483 134.169556 252.329391 90.959053 138.017059 236.519028 199.124252 374.155945 360.957092 387.651276 143.927094 637.620850 242.606583 514.296814 100.073227 231.445724 310.245209 536.986084 193.416245 157.564270 102.214226 730.590820 322.939819 225.592834 252.315857 236.691956 23.932999 225.767181 343.678314 185.447372 959.902832 166.259598 279.257904 169.300079 286.484039 88.629478 95.727524 373.535614 186.654892 144.230942 148.765167 602.918640 260.526917 238.740921 203.674835 273.201965 253.604385 245.175354 385.255920 278.573975 137.630859 231.356232 232.044174 199.531387 562.281372 81.388718 432.272644 210.542496 180.854568 124.113243 383.526978 178.819580 170.650024 722.765991 271.374817 381.412140 514.721680 271.949799 440.319855 662.631165 462.750793 201.097107 350.088531 421.200195 213.710617 469.398834 95.656494 290.366852 183.775330 166.647476 184.066254 355.505920 337.873718 396.507843 405.854065 423.757477 351.842346 212.331650 204.718735 260.872406 805.935791 433.144135 188.911865 419.810089 232.815750 270.940552 102.303368 275.220734 154.483200 162.758896 160.428177 367.737213 273.317230 562.751282 404.190399 88.584770 171.544891 258.329437 334.807404 8.828908 254.596741 201.021667 335.648895 120.420502 217.643906 922.556641 572.570862 215.196045 115.613388 124.314827 160.530533 1009.426086 212.178452 105.964554 264.339752 743.591858 692.725830 239.011337 170.912811 143.349426 216.826584 350.802917 198.996857 177.231552 248.311417 257.336884 777.632935 143.682526 104.693779 377.709869 181.792633 380.967163 390.901276 224.204575 130.878387 369.538788 373.414886 222.297485 368.906250 
conv_13_param_0 503.948700 304.044769 411.675568 523.985901 345.643280 389.471710 500.149750 350.891693 409.394043 475.467957 351.870117 443.563446 378.171448 363.273499 418.015289 424.606964 436.789795 371.626709 499.451019 320.615265 332.533173 334.464050 364.611908 410.778931 451.477997 567.001648 440.376282 296.424774 685.142700 405.740906 485.915009 386.681885 431.869263 471.066223 532.509460 324.254150 448.587799 378.087372 403.072662 368.404205 422.935272 345.974426 460.864868 375.021362 463.034485 370.664337 380.690216 354.255646 387.377686 322.757446 469.497253 866.699402 410.208771 406.294067 318.895203 464.646637 398.202484 412.226685 469.006195 563.470581 483.591370 408.321564 301.457275 420.775177 
convclip_8_param_0 1467.447266 1111.785278 2014.354736 2359.085938 1339.084351 1505.697754 1752.922974 1104.592773 1753.505981 2223.281738 1294.542969 3084.148926 2526.813965 401.998535 1242.480713 522.622192 713.924133 7768.760742 1403.159302 729.866333 516.965088 1000.818420 1370.699097 394.979950 1555.270264 702.727844 445.774261 1881.288452 1438.195923 909.719238 1080.453979 2098.706787 453.610229 288.731079 635.012695 456.068787 716.235596 605.385315 1636.866577 960.801758 496.288208 2765.312988 1839.382690 1498.779785 1125.138550 656.108459 1003.365295 1209.824951 1021.346680 1437.042725 911.633362 1186.529785 2440.731201 839.798035 1194.757690 1391.522827 1188.537231 1478.188599 1772.881714 1131.221680 1627.686279 1263.843872 1032.095337 2203.179688 1723.488892 768.492615 1680.865723 1815.862793 8694.535156 1797.616211 1373.462402 933.167603 8416.592773 1586.976685 808.962646 1561.508911 1066.524048 1578.166016 983.848145 1744.531372 1159.996582 1154.797607 935.160706 1838.736816 2251.186523 457.974243 643.047302 709.182617 1251.559692 1421.298462 2582.623291 2644.430420 817.633789 1316.454346 19902.648438 787.701355 804.692200 1987.327881 971.630249 602.400391 645.267029 1237.291504 792.079834 1473.303711 1452.841919 1452.079834 1458.720459 816.173828 9160.542969 366.639954 816.258972 1858.382324 467.537231 2317.771484 618.470398 1634.308472 1852.343628 2561.497803 2344.720947 1413.351929 445.427582 1770.938843 1197.296021 127986.132812 972.104675 643.387512 1857.510376 891.438293 1512.105713 10468.602539 916.903076 1144.587402 1231.432983 420.204620 885.051147 1668.953003 1888.404175 1760.665161 2496.103027 993.290955 1804.116333 1513.948486 1154.221802 2085.840576 1167.305298 444.972015 524.865662 674.910522 1165.063110 1342.717896 553.652161 423.347870 851.954834 631.493958 1533.673706 1035.095337 1212.186768 701.478088 1117.123535 1442.045410 1849.322144 1467.975342 1337.640625 2589.458252 1530.755249 426.013794 1173.626709 2504.674805 1504.721558 610.757629 1965.886719 719.611145 1670.419556 1440.208984 1590.532593 681.101135 878.628723 470.420197 1698.022217 715.052673 1443.894043 1520.522095 1456.366821 1138.199951 2025.712280 1378.169312 1369.908813 2288.810059 685.809937 1719.412109 1616.885498 638.067078 1197.889648 1915.372559 751.564453 1604.216309 1494.810669 746.818420 469.222595 1259.856323 656.551270 2065.253418 1865.952515 1708.473999 983.752197 1186.487061 2453.393799 860.164978 20441.720703 1187.551147 1656.484985 1015.713623 24520.140625 945.344788 693.217896 3263.294678 665.922241 2248.002197 508.533478 1687.083374 5073.540527 442.811462 800.798767 1394.938354 871.892273 1738.465698 2768.247803 425.259460 24748.431641 1733.891357 1676.972412 1511.981445 1599.834839 644.881958 803.387024 906.955505 1619.755371 1591.045776 910.085876 1271.091797 1051.537964 1736.846191 863.395142 1198.087158 1062.262939 570.405884 1534.755493 927.252625 1955.938843 1411.541016 2851.800537 1327.956543 1610.346558 1820.819336 634.771240 796.601990 751.669128 1098.649414 1392.315918 634.315918 1620.965820 620.024536 1589.731689 1744.110718 693.145508 1440.017090 1400.098389 3011.965332 1151.068726 2035.524414 368.757690 2167.813965 813.139282 1144.696045 2130.153564 671.202209 2116.953613 1142.776245 1933.391968 1126.100464 527.460449 2116.253906 1747.938110 3157.903076 1104.727173 1939.480225 1501.799805 2701.119873 5806.600098 1637.684570 1345.230591 2181.931641 1219.127075 1689.466919 2765.861328 1705.931396 1386.896851 1802.911987 878.281616 628.999939 1040.066650 1176.873413 1839.041016 2560.528320 1022.299011 2942.063477 2568.547852 2080.520020 820.885376 914.946106 1869.944702 461.175537 656.368286 2442.893799 550.262207 1032.782837 1423.045044 1746.323730 870.238647 1307.459106 1929.407471 918.950134 1159.330078 1479.684448 1315.802490 1405.877319 600.236938 2069.787354 1899.148926 2387.136963 1447.536987 861.318604 296.030609 627.737427 1758.377075 1323.153076 545.147217 1829.888916 1383.497803 1123.238525 1222.802734 13896.104492 1864.473389 748.750854 768.062012 1837.098022 557.029968 478.883392 1079.721680 767.105957 650.050110 713.407410 1391.749512 1142.047974 756.024170 538.328186 1451.056396 1593.789551 1597.413818 473.628418 1437.436035 1248.676392 1591.119263 1008.729431 959.738098 1725.085083 493.237854 752.776062 1659.531250 1508.333252 1578.631226 1277.386719 1672.333252 650.533020 11933.975586 1918.976196 632.432495 856.047119 2002.330566 1403.152344 1225.430908 547.283936 1109.709351 482.248322 
convdwclip_7_param_0 95.683640 172.581100 165.363358 37.610989 104.939278 54.296276 88.117241 52.028416 137.237503 3924.676514 115.481865 41.508358 109.421402 247.252655 83.445755 277.046021 213.192337 35.461197 90.903473 136.121063 320.720306 247.433685 142.533768 400.066071 39.771587 238.873062 318.494263 128.296967 118.404984 229.407639 95.892639 146.236908 292.910553 402.951355 248.087708 151.663498 84.741142 212.278046 81.701180 99.757744 323.566437 101.395050 47.684681 121.300301 121.858757 460.934875 130.108200 71.747826 101.891403 75.051201 58.339844 108.198769 54.022491 101.259575 163.487366 133.786377 133.393417 90.268654 179.527786 102.533340 155.585236 62.590157 121.295380 105.461777 128.286438 338.954041 140.317169 161.059189 8.816120 130.912613 116.023033 99.532112 19.110212 136.987717 303.418457 139.242844 158.945724 118.994286 143.048965 140.886734 188.376266 131.892792 163.996017 87.048256 92.777107 332.818420 50.131191 206.548981 180.006882 98.035179 56.955872 51.925323 258.196594 256.698517 61.710697 302.725830 157.280945 488.161072 115.469887 77.424240 165.764893 101.844269 126.348602 91.784752 87.753769 109.975136 69.532387 200.978851 18.942404 113.662056 204.986801 121.751076 351.094177 74.157547 306.999725 141.562317 101.491150 87.028473 119.271118 100.387718 248.782028 105.605797 220.877258 26.195604 179.416534 334.391479 92.594521 168.408356 92.608963 11.828738 176.654282 48.826958 280.878143 203.276764 60.775433 148.501251 76.257401 57.112259 110.648743 206.123672 153.185211 131.373383 119.301514 89.380493 161.616577 159.106689 265.775604 204.538330 98.690765 193.214142 241.847443 414.780396 146.278519 173.339081 111.352791 198.169556 83.650673 209.199448 207.793259 1040.662598 920.532837 180.394974 82.840736 141.402344 112.088737 248.546738 160.648605 53.404781 109.385605 117.794144 98.611710 346.385406 134.868866 119.071465 116.758423 373.761292 146.453110 222.758667 170.723694 290.188141 182.816757 65.190346 137.148956 182.705154 116.365875 48.341984 178.003677 42.315685 272.856934 50.020031 222.918625 208.043564 99.613571 105.358727 246.593307 75.959145 79.163101 91.506416 365.639771 146.778763 168.037262 84.039764 153.072021 145.192215 206.943604 146.407333 92.311661 125.258575 12.315319 98.385406 115.077896 129.597260 24.765757 144.104813 94.459557 57.026596 179.159561 118.610168 256.125885 110.450737 4.503658 208.183395 142.885757 119.573952 286.373535 147.616165 86.930397 89.045547 26.373135 106.915329 60.826385 45.325550 58.412853 138.480225 146.702087 206.402924 125.552345 100.300415 51.181557 68.317368 97.944870 131.805756 212.746307 137.262985 217.986832 246.980606 107.021690 266.769012 59.916080 123.718666 97.025444 38.891724 69.606674 110.206726 148.243866 179.634567 279.398926 272.890869 141.934875 311.250610 113.803299 221.070114 125.332794 116.157547 121.572365 77.630180 116.166183 90.578270 87.574516 90.233475 255.882446 125.370308 67.312965 102.822762 126.777596 167.855499 177.022324 105.539955 88.286835 134.780258 132.967819 109.589981 131.143524 30.750423 71.331711 181.279755 156.907715 118.722694 7.153798 113.084015 161.717575 45.611206 48.860535 130.666672 71.499710 68.951668 72.724220 80.514252 213.730896 249.991959 195.649139 162.064529 142.745453 83.913002 80.220757 98.109245 31.340746 100.859619 118.226097 100.894081 94.792503 219.844406 322.355011 135.760834 331.286926 82.366478 131.099274 82.039673 233.223587 249.127014 99.189453 149.465073 225.214767 153.764969 31.433163 89.874390 279.188660 98.674698 94.771515 109.001770 146.658371 121.834633 118.028618 211.905060 130.129791 99.772003 439.471191 149.672073 119.295479 90.362694 197.387482 44.209808 97.065773 174.140167 392.763092 71.054512 389.358063 205.393509 148.734100 148.335678 194.274414 185.810944 147.989029 47.402653 151.925980 227.111786 68.656212 199.388824 53.437801 296.905579 101.421341 71.089989 65.023102 210.284729 414.151184 132.852264 163.090530 223.615189 175.131058 129.884689 123.806816 76.670280 121.522247 346.614227 19.024851 82.781166 291.382416 173.384430 132.720871 167.092941 132.834442 358.187958 124.334892 233.840271 
conv_15_param_0 528.333679 620.652893 463.230927 615.814758 500.041595 831.320496 701.003662 445.853271 331.861145 580.065369 675.387695 548.602051 428.103668 791.478455 660.896851 745.225830 580.257996 1010.775269 384.332306 732.539612 697.329102 620.426880 601.000366 409.125458 557.476990 447.847290 600.595215 793.722229 467.672516 561.388489 353.423279 511.847168 699.623779 840.132263 375.022491 1028.471558 486.077789 481.415497 649.915710 792.749146 528.225952 595.176025 622.557556 599.858704 453.602631 550.006470 553.062073 451.986847 614.123169 700.984558 567.449951 375.109711 505.762573 595.862732 506.875092 555.135681 493.636780 667.715149 398.177734 365.290741 545.571228 683.775635 796.533508 632.232422 
convclip_9_param_0 472.695831 2118.059570 802.144592 1311.520630 983.352234 926.785156 625.643555 1591.468140 697.889709 442.293579 1122.972534 1701.906250 568.977234 1417.958618 1066.774658 1082.947876 1590.641846 946.094910 1956.419067 866.324646 1957.508301 852.911926 539.228333 1297.425049 564.516541 464.585602 1543.592407 729.807068 400.620331 1070.556396 1492.422241 642.150879 1141.862061 887.585144 1194.030884 2506.108398 1272.630859 1568.474609 1152.472168 1786.756348 1440.384033 744.089233 1147.065430 1125.496216 2008.744751 3506.098389 1074.230591 1624.154663 1901.844604 877.468567 936.857361 863.160583 946.019043 688.899658 1224.235229 1583.159424 1019.515625 731.636719 697.344971 1589.276489 673.646545 683.311279 1682.476562 733.198792 473.022858 2107.795654 1651.117920 2296.355957 801.289856 630.372681 588.165649 1745.274170 1472.418213 1697.614136 604.667480 1453.105713 2029.229492 1121.309204 890.564575 449.856995 982.493652 830.679260 1275.053467 1159.431763 2012.488770 674.669128 1292.070068 1106.048340 662.597168 1901.825317 708.342163 3615.004150 62056.101562 609.358276 1062.282104 958.580750 737.883667 673.097778 1057.655151 483.617371 614.401428 2325.763672 660.331909 982.989746 937.739807 1152.898682 730.809631 1648.650024 2060.067871 506.308563 736.800537 2915.236328 2338.895508 884.190979 16319.365234 596.673035 791.665771 12563.957031 1527.344604 1526.818726 1167.943604 1363.595337 2082.913818 3630.542969 521.544067 1874.195190 1477.560669 1632.291016 974.701233 535.117432 684.266113 561.829773 1006.103027 956.440125 1369.543579 2349.900391 437.573639 844.099304 1271.081543 1737.943970 3192.702637 1353.504395 808.864685 499.636688 2556.206543 714.919128 765.814758 1914.905029 2593.245361 2719.317383 1012.546509 1113.586304 866.195557 1782.743652 597.605164 1833.837524 21263.603516 1811.416016 518.300537 1198.644653 1403.729126 891.325500 926.716125 12908.192383 1398.131104 553.455750 2669.252197 556.260498 785.457214 2310.172363 838.146240 1919.713867 1222.495483 1624.527588 944.033997 1455.609131 429.946777 641.304382 1284.464233 1776.799316 1241.571533 449.086548 1450.511108 999.131165 713.223389 2791.685059 1182.953613 1708.896729 2206.635742 771.057617 1188.661011 1264.954346 7800.001465 1656.410645 2660.672852 1987.557129 2486.007324 2072.007080 877.320679 482.136261 1893.906372 919.901672 1067.654785 1515.402222 1747.165527 1938.823242 1643.708374 605.533203 672.788330 1419.340942 864.583435 941.756104 1716.382935 1319.407593 884.062866 1043.163574 1831.633423 1132.613281 1940.703735 1604.114258 3069.686035 1156.671875 15142.298828 835.272827 1228.832764 2267.217773 607.891724 18110.388672 1142.843262 2375.680420 2807.373047 521.915833 1681.659790 1065.577881 2579.366699 755.656128 2121.817383 1418.604858 874.006104 1317.975586 1378.601318 1382.214478 639.923157 1821.940186 1350.193848 1259.161499 1198.252930 1577.906738 1363.874268 921.370422 2626.736084 24133.089844 953.654114 683.753967 655.602661 832.969910 637.758118 557.892578 863.424133 508.278564 2305.079590 1085.186768 734.474609 1570.569092 392.997284 680.113464 156762.328125 1776.331787 1218.973877 1790.217041 793.033875 687.811707 1723.367920 2245.865967 1330.542603 701.947998 2041.133667 779.691284 10044.017578 463.872375 638.749634 973.874512 803.009033 1411.232056 8559.119141 2515.231201 764.036072 845.161804 2470.721680 1736.863525 549.984680 1016.343628 1323.146362 879.032593 955.521851 1990.856934 2503.500977 45114.050781 593.852539 1276.403320 998.667114 1289.686646 6987.711914 3101.043457 1574.975098 884.072693 660.755432 513.750244 1079.073608 936.213562 1080.037598 1618.223267 2193.027832 1252.586792 556.544006 1574.786621 62166.000000 947.976990 959.656311 815.474487 83486.273438 647.400879 992.297424 1262.415527 1454.648804 1238.981323 1483.992065 1665.058838 1246.660889 1679.845581 1150.964355 834.406250 1468.812988 1847.377563 1411.094849 1282.251221 2581.959717 422.515808 817.950806 2150.165771 1262.544067 1624.921387 1468.234009 1142.866821 2426.686279 592.786804 1904.623779 1397.571777 759.214172 647.329956 1323.101929 1698.464966 971.415833 877.219116 1886.045288 530.557129 1738.216675 2628.912354 1623.232788 1535.206543 1543.933960 433.333801 844.904785 2787.960938 658.451721 1643.012939 1129.243774 633.415833 1313.879395 2590.784424 704.523132 1055.320190 1388.621704 1115.702148 1423.809570 1024.931885 1500.987671 1173.282593 674.426758 14350.060547 1012.670166 1566.832764 12216.173828 1016.915161 
convdwclip_8_param_0 241.597733 44.566067 256.188385 79.538757 86.183006 68.551392 346.206238 45.417374 206.445343 192.724289 77.864960 57.623875 314.098389 57.795536 63.199329 154.446381 81.433517 360.620819 29.835934 242.179153 27.222851 155.198654 217.283539 120.601456 158.658508 340.977448 51.722305 484.550293 165.544800 276.779114 27.795876 257.577545 105.948357 185.315796 179.080872 65.263565 62.889042 140.388657 47.403961 67.187614 86.263573 354.392181 149.614365 63.498795 112.295662 59.860924 368.863129 117.598572 119.657814 171.548172 233.232132 225.064941 313.380096 178.885330 113.472595 73.121964 160.745789 172.511459 163.446777 31.551483 217.721497 167.086639 35.402309 154.004288 385.650208 133.432983 83.940323 86.841759 154.631454 228.568680 141.040710 67.363930 122.033852 149.741165 193.788773 77.853737 117.617020 127.761314 224.456818 169.813629 100.967430 176.947067 165.675354 43.709766 120.730652 388.200012 185.193817 105.688011 178.114243 83.319069 127.418587 35.482834 169.432770 191.863297 79.602135 53.172741 234.016296 344.013062 101.887344 245.616379 253.578735 51.742794 243.318604 133.810242 118.005409 86.701134 351.552490 49.175518 1574.475342 191.281357 228.116409 39.097790 103.691910 179.741501 9.079135 190.345184 89.136749 13.347610 80.184677 121.779305 155.720230 33.238888 112.991608 234.434113 275.272949 188.712692 155.562134 121.120316 86.646736 202.035599 239.382568 168.883759 174.347931 340.167572 111.452614 60.586712 363.142029 195.076385 80.993500 167.000443 217.612656 187.500290 203.602859 430.871857 113.393257 118.012115 196.489807 47.992867 63.785145 68.184250 199.136703 128.405380 149.271927 128.821945 211.618469 63.073929 47.716618 110.578972 167.076065 197.355453 118.896767 74.046684 261.191071 24.857693 109.615791 255.425674 75.684387 166.117157 282.654327 85.577362 272.022766 109.091331 120.667473 402.191254 108.409966 53.018627 371.351837 279.076904 54.590744 109.619308 47.307606 419.443817 67.511276 145.367691 304.607605 76.181267 242.176361 79.287827 107.136833 225.623779 119.571922 47.320488 4.803590 103.815697 30.477005 118.840080 151.052963 143.256454 159.257355 178.087769 142.160751 89.084068 140.524841 27.433352 82.906906 81.402740 72.007866 265.614288 308.401672 180.774902 96.548325 77.260178 109.644600 57.707680 220.877167 168.855255 106.703926 137.143250 80.688820 82.025360 86.143509 219.676315 22.852119 206.071533 82.014648 81.533440 233.153793 26.429989 172.271606 112.657394 6.955422 96.273064 650.153564 130.886642 157.375473 239.626938 117.341408 148.201553 198.794098 181.570480 129.632004 138.594482 332.156128 43.394669 113.795120 112.678246 91.807739 80.837891 36.643986 103.159081 174.330109 11.955305 96.669243 209.617462 316.518494 197.323456 75.428787 327.312286 141.371094 215.637177 115.919594 137.667450 139.800156 187.457077 255.145462 156.641159 2121.247559 90.291237 153.621689 124.632568 142.846039 303.592621 101.728439 59.324944 147.905090 376.369629 63.385334 258.965057 7.104088 346.083862 206.731644 220.744537 183.017197 163.835083 26.328041 107.832260 194.618958 194.630386 60.821640 74.190300 140.840622 88.608452 118.997566 111.706421 186.483093 78.282623 43.848423 12.268382 290.570984 94.267204 94.730911 140.044342 17.098703 74.949554 33.937634 312.695129 161.646957 209.292755 68.704254 62.534447 320.399780 90.519485 99.300888 110.164284 252.615112 79.277885 510.372040 108.151047 48.932018 138.203522 13.488420 329.996643 119.702179 160.907028 51.485142 48.116096 35.699150 70.522736 106.557045 41.877983 60.619160 233.255753 35.553062 21.304585 89.168549 87.354698 66.936340 153.426544 79.114571 103.776779 41.786045 37.187908 83.436646 84.104202 53.973755 204.729980 114.255936 34.870461 148.735550 411.003204 117.010727 40.443645 54.845879 108.307297 83.084511 283.718689 53.847237 91.787079 154.501221 51.314003 145.310532 126.025818 134.508774 136.009308 270.934326 64.891312 43.715603 232.872849 266.105286 85.017929 168.320786 143.792145 124.941681 159.862076 72.734337 49.311150 79.368149 186.177292 170.126282 20.166647 62.406128 46.037937 18.118404 81.345650 
conv_17_param_0 449.436523 1019.221741 517.661194 546.188110 469.474915 684.498779 696.388794 496.980316 449.966766 487.996399 654.120728 500.196014 638.945190 880.568726 921.928650 852.211182 628.835144 754.779968 369.595184 703.766602 664.186401 508.007904 540.493408 609.056091 672.096191 654.149475 505.824127 643.443542 461.064392 758.327942 290.532928 416.974548 801.963928 661.591858 471.701935 1231.911743 654.997925 743.228882 758.744568 632.505188 636.030029 490.044128 630.193237 584.739502 566.828735 799.255615 515.128052 591.754883 766.710266 795.339905 414.786316 628.505493 587.042419 556.048462 410.133636 617.905762 422.375793 647.733215 566.783386 441.596222 504.300079 856.933228 1127.611572 652.966553 
convclip_10_param_0 112050.757812 1926.906616 735.671448 2542.786133 1457.578247 1389.848511 1028.474365 12513.402344 890.013367 1646.143066 2821.514404 1938.840210 1089.875610 1243.345093 1817.791016 1878.462891 833.235291 945.256592 609.606262 1046.298218 1201.866699 994.184509 3882.236816 1883.837891 784.473999 973.695923 1266.411743 1500.583496 1869.691650 420.783783 1468.079224 2375.237793 11733.815430 10944.197266 2013.103882 1383.092529 1210.391357 2532.950439 695.023743 918.261963 747.891968 1554.839233 1624.648804 2418.438965 679.946167 17292.591797 448.269531 612.865295 1307.356079 1001.520691 1286.721802 13321.540039 2408.335693 1604.015869 1645.017212 1466.019531 1067.149414 1256.156250 974.950867 1959.610229 1044.546753 768.441406 1827.135010 1687.341431 1788.686401 1052.044678 835.494812 892.546570 7995.436523 592.068420 993.092896 508.517059 895.998413 27969.318359 1029.654175 670.345337 644.311462 946.817078 1175.381836 1186.007080 577.839783 6512.016113 871.294128 753.277771 1466.425171 818.613708 896.757080 1772.743652 766.068237 1637.470947 731.207214 2322.843506 1698.996704 2443.419678 1879.063843 8311.194336 960.807312 1342.111206 1916.429077 850.428040 5373.476074 1185.583984 1381.617920 1020.410950 2621.302246 12643.801758 681.520264 1121.945801 1001.712280 637.334167 888.857483 858.953003 2044.438599 839.799805 1596.533447 1943.307739 502.000000 2410.864014 736.727356 1976.078735 1417.836670 1372.955322 1987.609985 730.451416 1128.448120 2618.494873 1310.509888 552.600281 1093.646484 1718.673218 2668.220215 639.493835 8661.545898 1194.037598 1189.707764 7197.249023 1389.911865 1002.432678 1842.488647 2187.099365 2166.510742 1879.241211 1521.411255 2791.301514 2396.723389 4690.535156 1707.798462 2439.038086 1443.958862 297772.281250 901.775940 1732.456299 1719.062378 1274.426758 2065.422363 1643.976562 32042.919922 890.940857 1729.609253 2320.478760 1490.701294 725.893066 1281.879761 1849.974609 1682.319824 10056.075195 707.087524 5605.053711 521.487305 1131.706665 2355.972900 1302.996582 2292.695801 1532.401489 609.284058 705.407104 1419.424438 2022.323975 1853.760010 715.136353 1691.683105 7505.470703 30269.267578 1370.007202 756.712585 1880.568481 1572.051025 737.941772 2571.956787 1350.206787 1682.355225 1149.896118 574.530884 1643.493408 1739.011963 1170.800781 624.419067 633.762512 529.369934 934.268677 1780.980225 1381.316772 518.638489 925.183105 1047.056030 2370.756592 1821.350342 1540.465332 1695.724121 542.678894 1304.441772 1159.177124 1289.191162 1670.828247 1392.091431 1084.439331 1063.678101 559.768738 826.530823 1796.961670 809.851257 2258.421875 1311.144409 887.972595 1723.253784 448.356720 1356.179810 1313.979858 1474.393433 1417.007690 1742.910767 21386.550781 2149.865479 400.933105 1853.778809 3200.979248 1786.278442 477.591187 1100.687622 2305.066406 702.866882 805.191650 10148.571289 1386.978638 1376.197388 864.234680 4090.156738 2658.195068 1010.284851 1081.387451 1914.233398 1568.714600 468.359863 653.783020 3134.233154 574.053406 767.047485 1328.551636 1907.198120 591.739746 2382.500244 1167.629517 1147.599365 1263.852173 1181.560547 1269.465820 683.334900 2228.913574 1047.768921 625.783813 1759.215210 59574.265625 1330.622437 1129.223633 1070.461670 992.183167 1718.851074 2166.704346 1005.221619 11395.625977 2119.479736 1794.714355 11442.956055 1523.583374 1614.114380 2009.737549 2389.462402 844.408386 1121.101562 2403.175537 1918.588867 1589.540405 13289.769531 1458.269531 787.360962 1206.626099 1046.819458 580.984192 1836.188232 1172.716064 485.824921 1442.317383 1222.562378 1249.386841 2328.612061 1653.867920 1565.514893 1473.388428 976.606628 966.068665 908.890076 1225.412231 1741.236694 2029.298340 953.197632 2179.214355 1475.201904 635.143738 17490.791016 1652.453735 1017.394287 743.933960 539.235413 14190.044922 828.017578 1302.155029 475.884064 1026.538208 1828.101685 2165.619141 1593.759766 1849.398804 1615.973999 1029.159912 1992.692139 606.628662 792.476929 2422.660400 1217.093384 1267.081177 993.822144 1944.696899 978.658630 2133.258789 4003.001221 1198.959717 1384.309570 633.155029 1333.754517 1154.203003 829.081543 755.264954 1486.687622 1713.536865 9323.340820 1264.220459 1453.411377 1547.639648 659.753479 55397.726562 2786.843506 823.614502 1772.069092 1194.663696 934.359497 1208.616455 2183.536377 3226.673828 864.560303 2009.391235 447.882477 1648.195068 501.318970 1847.733887 645.952881 708.044983 1065.300415 1242.274780 1078.962280 899.063232 8631.939453 2908.877197 8266.116211 2169.633789 
convdwclip_9_param_0 532.054871 48.716454 141.521194 89.676796 144.996246 115.761177 127.286903 6.667009 217.914093 95.006088 120.373444 138.654266 138.453781 95.768051 200.342056 30.127129 79.849274 159.687973 185.441681 182.636154 90.683693 149.336792 760.169312 75.620399 190.163727 281.373016 148.593414 85.772987 118.086479 441.259674 80.152214 69.653297 14.373422 14.638543 84.462570 203.758301 59.987484 125.385727 105.553116 267.949005 249.690353 100.038765 87.433548 82.677193 309.642334 9.599688 258.211151 285.003174 51.104198 180.297546 109.800323 3.755645 114.811203 156.629120 95.492409 223.485321 135.866791 362.652283 56.760052 60.293938 177.958023 204.910263 54.476109 66.535156 61.642941 63.051224 121.644226 233.027130 9.850925 175.448120 100.962753 330.813843 131.019012 27.499899 114.939568 278.892700 295.626099 99.696732 143.583908 37.490448 312.721252 34.677002 188.319809 119.162346 95.517105 213.524872 125.077454 76.501556 185.658813 49.891586 199.038696 67.549988 41.881451 30.791065 28.843742 5.032692 289.001770 26.855577 741.332031 157.634979 10.562486 75.051933 94.316071 77.674614 129.895782 8.911585 302.386963 127.287605 46.899723 126.434669 162.523178 217.769028 73.664108 105.577278 159.926559 103.529106 412.940094 95.202713 113.233055 16.121250 65.637627 258.865936 31.189924 178.554413 207.721100 62.732147 47.510174 229.828125 84.608353 865.149780 60.946743 274.576019 11.816180 35.579357 95.667053 22.126972 84.312073 166.618896 135.810822 80.408691 71.330872 48.438217 144.163696 105.473930 287.512848 4.458589 10.998503 158.032043 92.009331 2481.072021 86.009941 46.121895 181.902191 129.748581 79.968521 176.496262 116.849640 204.312408 142.604858 108.788361 100.930611 138.991806 136.326340 125.509865 116.084442 35.395889 276.932098 15.902353 217.209366 86.505974 69.058830 111.457787 68.173996 65.548492 196.562042 278.495087 139.418747 66.381622 57.438198 335.465363 69.215218 27.397593 168.984375 57.504799 151.758057 72.012726 95.586533 176.642929 80.634224 123.555840 106.233597 177.371552 443.546722 37.715118 433.162720 140.312439 187.213806 118.058037 123.643028 198.454208 122.219254 110.463470 282.550812 119.708633 192.479828 27.143841 84.260094 56.943478 30.376926 234.186081 168.317581 30.767073 194.911911 37.572872 77.190681 77.307526 82.361130 116.003830 134.898529 126.598007 161.786362 76.085091 130.179611 148.932053 116.434158 394.955658 250.636642 73.768288 158.047516 198.310577 74.813293 14.901742 65.952652 338.057465 71.139587 35.768738 99.893288 121.644920 75.084564 159.660553 337.324097 309.556488 8.335148 89.269279 120.635269 226.791245 2.205854 34.500500 185.651001 112.648369 151.609558 114.208488 258.039154 350.847229 81.587456 212.287872 156.568298 51.052658 96.427734 181.117081 90.590790 95.319832 93.677299 150.967575 87.513939 162.584732 106.473747 43.317135 134.447220 177.158676 68.846756 155.216537 136.590790 116.840141 91.282890 103.166962 77.397331 84.434998 160.690460 6.433473 93.623199 51.558224 7.887931 104.936539 66.496780 127.879730 15.701743 144.870422 250.152527 60.168583 55.750679 168.998947 13.021024 146.744019 248.836624 84.130005 90.979759 335.652252 26.557392 265.451965 138.181000 74.169044 115.321915 90.925392 76.633987 190.231659 180.559860 99.768150 70.184204 143.382523 324.493408 67.752312 34.600712 88.272453 67.081421 59.749119 112.264740 99.352669 11.084965 68.661308 204.732834 504.183868 412.797089 10.479037 123.643242 96.677292 419.697052 188.311981 66.938248 19.137100 70.452309 118.444107 40.573711 182.820557 186.403778 159.772354 224.890915 104.253799 91.536018 64.111382 123.650146 213.094849 199.425385 108.438492 63.560581 162.754745 124.090172 237.776688 152.063004 269.091217 216.153702 199.006683 55.623913 147.395126 10.545887 56.026546 106.360390 98.390419 219.784348 8.867564 50.281902 94.724564 561.286377 145.309814 157.682846 82.943947 70.535477 47.053474 186.598557 120.883392 238.433716 13.179501 481.611694 31.708010 245.461578 89.226059 160.137833 165.974274 170.150818 360.308960 4.714090 59.264835 6.987358 71.529114 
conv_19_param_0 480.555817 788.728271 571.890015 555.685364 529.115784 932.234375 760.582764 530.429138 526.261658 504.263672 572.107117 544.101440 839.684753 945.214966 645.675049 657.245789 831.826111 1322.404297 364.569061 575.915955 749.977844 871.728210 570.630127 648.820251 614.397705 592.959839 446.163818 858.729675 415.043243 561.800476 331.795380 416.571228 453.438324 632.268005 532.672363 870.010071 726.359558 624.170044 934.576233 964.824524 530.747498 385.437256 772.489319 525.926270 528.698792 628.210083 487.327881 351.920502 753.477539 529.285522 363.595764 511.056366 507.896210 577.094543 541.477539 800.914612 405.126404 511.792969 688.160889 469.662415 359.333984 696.362915 942.934631 647.620483 
convclip_11_param_0 1563.752930 629.725037 1220.510620 1989.080444 1677.015137 896.512390 848.579773 953.450989 1758.680786 2919.639404 2916.705322 750.025574 1562.967285 1225.060669 759.619751 813.576599 859.806458 1658.410645 1235.300659 1090.007080 1537.980347 1501.454102 1354.927002 552.942993 762.089661 1214.148315 1623.693726 857.225586 564.342712 1086.730957 826.636353 2439.773682 691.611328 2261.167236 1629.743042 2136.090332 718.511108 2112.456299 914.177002 1314.301758 1576.773926 630.209961 3514.236084 15704.851562 520.960327 1498.511353 1071.197144 1880.693237 1077.014038 1407.750122 2995.802734 1355.549194 686.284973 793.064941 1779.826172 2104.532715 605.745117 2118.572021 1955.306152 2740.320312 594.528320 696.770508 2962.695557 1653.852295 941.020325 944.302917 1609.839478 1529.896606 1029.529785 2077.991943 1265.505615 1155.182373 3656.373047 1520.409302 685.954468 526.310364 1679.799683 1503.391602 705.915833 1500.263184 1053.052856 1042.715576 725.969727 1428.206177 1527.665771 1371.214111 557.514404 589.801636 523.094849 1092.402466 1225.015869 1197.600708 576.441284 1052.647461 997.081055 2416.085938 1482.197510 1817.167603 478.286316 657.856628 1424.353271 550.072754 602.847412 1186.224976 688.466370 993.988586 2395.312012 481.273956 1774.554810 863.859924 522.514771 747.474854 2888.663574 993.783875 865.877563 1542.384521 590.922607 1263.568726 3670.412598 1497.907471 1402.552612 1502.381226 2867.832764 569.674377 1699.034058 1021.158081 1421.489380 1373.023682 1063.518555 572.136047 2212.244629 884.176147 1726.346313 774.177429 1000.717163 1104.634888 1236.955078 565.748779 24301.658203 843.811646 1679.668457 661.837524 473.642578 1041.605713 869.314331 1434.326904 1430.869507 2258.812500 815.637634 1076.425781 1846.953857 723.806030 2418.968994 1181.754028 791.127930 762.769714 2255.163086 1488.989746 962.101990 2489.679199 745.260620 5308.992676 567.432556 941.974365 1839.939819 781.672791 719.206360 2284.786377 499.927002 1650.590332 985.129333 2700.290039 688.658508 2211.134277 1439.530273 1881.390625 1635.015503 1886.055542 1394.497803 999.118042 1276.645996 1615.276123 1261.074829 2653.519531 674.651489 816.470215 670.094360 574.459229 372.085999 1847.091919 676.789490 725.641541 1353.836792 976.694824 1004.970947 1609.980103 871.102295 1033.890259 341.701477 2596.784668 588.062805 995.097351 1797.035400 772.647766 1301.004395 861.472839 658.915894 1739.656128 567.882812 1104.172729 1032.808105 1702.462280 639.724854 567.498169 772.770264 1511.105835 732.820496 1592.184204 1384.665894 829.492981 1317.302734 1211.995605 471.346893 1238.268066 1504.850464 605.605103 1257.285156 1308.189819 1323.212769 1947.506714 1045.453491 929.036377 1383.729126 1453.740601 2149.738770 3313.744141 1364.283447 876.356323 3105.362305 1485.860840 1444.750244 1795.973022 1191.234741 452.129517 1116.357788 792.934021 672.945923 459.469299 543.064514 1280.803101 1416.390381 1340.790527 1702.606323 687.420288 701.367554 1666.154419 1658.607910 1712.450073 697.802979 887.317322 836.867859 598.465576 1962.597412 872.518799 1755.186646 1384.378418 1980.183105 825.101562 1511.334106 1124.421509 1108.039673 482.369141 1964.596558 574.951477 1267.751953 1321.492065 1233.554810 2211.563721 1583.098999 799.879944 1228.625732 1006.793823 791.029053 827.988159 893.045654 1344.852905 1098.400879 1167.728271 1117.536621 996.479431 1640.621216 859.367859 1316.720337 1275.889160 1203.327148 697.241150 937.074097 2391.452393 705.485901 918.922729 438.930450 638.842102 493.916565 796.484924 1018.028870 320.051575 1549.761108 2211.124023 1565.820190 1288.767700 1297.223999 2454.969482 1523.533813 2849.491455 838.427734 590.522827 2507.179443 2185.013428 2170.027100 1699.325317 1117.267944 1854.447754 1068.080200 1492.653931 1563.278931 2502.590088 1772.172485 783.055969 1318.055786 854.951233 1704.840698 1168.545166 1052.510132 1818.472290 2082.076416 2611.873047 1293.256226 636.886047 1088.788696 1209.935791 1091.552490 15263.102539 3243.483887 2037.454590 1260.765015 1510.165649 1359.023315 605.646484 680.555725 681.415222 1591.931396 835.213989 1427.649292 670.396912 1190.361816 1010.987732 1108.778931 586.106934 858.211365 742.625122 990.457642 677.471313 1613.304199 1337.627930 2573.844971 885.865356 1416.048340 1715.927124 2165.867676 735.450195 777.062195 1932.351562 615.199524 664.387451 1016.660461 1506.345215 525.244934 1226.961548 1737.747803 1263.217651 954.688171 1365.370728 2038.396240 1605.520142 
convdwclip_10_param_0 136.946823 228.405563 136.299484 235.274414 82.804085 174.256027 179.217789 302.012390 111.586868 58.015358 31.394169 297.665405 143.030624 73.168877 186.459274 176.715408 157.452118 75.442062 178.325836 106.537849 115.422096 47.956692 136.344986 499.136688 233.463776 106.901505 92.035690 124.231056 436.778381 100.894722 108.608948 82.959396 145.508865 31.312548 129.470627 158.305695 164.504868 107.931274 137.760849 136.217743 41.468750 337.276581 52.259399 25.597666 137.405441 227.502930 86.482529 93.357254 169.753891 110.824265 46.093788 85.578194 215.853073 172.391876 48.765369 55.257465 149.877426 91.852051 121.806602 45.373047 300.944061 461.567566 70.303490 253.137024 145.653336 154.176163 133.027344 109.389572 120.981667 61.059345 135.361084 65.542732 36.027565 151.875473 298.875641 179.400711 113.277206 86.107544 623.423950 44.242596 213.737869 66.710510 164.615845 97.724998 43.900593 66.343544 433.155640 224.697525 250.026917 93.425270 158.467575 61.392433 152.453430 184.546539 74.937973 108.709801 88.321976 81.888092 178.184082 246.894669 139.866943 244.776016 439.635101 313.573853 136.445999 301.185791 132.474777 208.737610 84.994568 563.697205 220.658951 109.718597 42.760353 218.114456 147.905746 98.194832 129.262848 52.397171 185.573776 138.226868 131.338531 243.063187 91.544128 224.377350 70.584427 226.039841 178.288162 105.455444 196.496811 459.622253 51.377796 376.770630 96.168739 401.869843 209.529221 176.985168 127.170837 522.233337 7.443892 111.902832 106.693771 333.642426 172.955460 181.616974 272.170044 181.684738 51.180431 120.809341 107.310287 72.889030 126.913132 204.553452 116.061371 104.359375 266.307495 147.318344 70.979179 113.060532 219.780060 82.761032 222.516068 24.650194 428.079895 284.970886 82.256264 104.147202 104.669861 128.065155 189.462997 131.105087 109.785622 46.505085 212.262131 135.485733 87.753441 126.634117 59.816288 78.454285 57.286880 262.495239 98.553825 156.300385 188.275909 94.110992 382.053040 85.563545 252.828293 207.165085 384.886322 115.664337 295.537659 104.457558 190.042191 186.139740 239.132263 45.052105 144.299179 303.420319 374.963501 53.386715 366.489685 136.874542 176.597458 131.270386 59.607849 181.076660 362.907928 42.891933 128.334030 337.947327 67.210129 38.520283 206.401978 351.891541 327.339447 184.416031 128.045700 109.354996 121.870323 103.681465 44.043125 91.585693 162.710190 116.022392 76.753372 285.879547 127.223007 116.342178 98.789467 29.215738 103.620728 65.751877 221.445374 86.821350 50.948341 32.117176 123.857513 72.904907 121.109283 74.267349 101.198555 189.514206 94.506027 534.537598 94.405159 181.551361 459.070892 142.574310 423.272980 239.597000 106.446045 88.728500 163.235092 312.598969 243.397171 84.579605 97.416512 95.904121 235.281036 177.142273 120.321762 151.823944 43.535877 199.259048 133.098923 63.371899 155.147232 209.132553 136.490875 116.769951 291.897919 429.352844 38.319935 143.500580 209.291321 172.972809 52.820854 104.131088 139.457474 96.798027 79.268791 340.134796 204.457260 138.378281 96.966248 207.710785 75.862686 196.815002 147.501328 83.545403 87.859375 237.906464 73.505882 88.555908 140.525070 311.979675 115.108635 60.324055 113.987236 138.099060 131.446030 167.810287 197.012360 173.837173 153.808105 658.104004 87.150902 72.807304 77.017189 87.640785 68.860245 126.623131 141.498520 68.868729 125.295860 103.275864 53.186165 58.597088 70.617439 78.684204 66.695869 69.293488 171.939682 59.661091 166.787613 27.822731 85.094879 222.176086 197.235123 323.125427 112.245560 113.202209 137.520004 177.379745 202.654922 79.987999 120.351585 135.763901 66.606064 80.186356 341.859070 28.109293 34.491604 52.772812 40.329689 95.327950 294.527588 127.403526 447.569305 246.812042 152.016678 90.341530 140.246552 146.944763 152.266998 87.290955 199.727432 403.656006 167.524902 377.273010 214.980469 179.396439 206.114838 99.977623 46.966507 138.580734 87.575172 76.706764 54.870449 137.762604 350.329559 56.694340 215.392242 228.860184 101.904663 138.074585 129.584534 199.418350 139.839264 152.574661 97.323059 62.297585 113.988808 85.708153 
conv_21_param_0 898.348450 907.599121 643.429138 512.781067 841.928345 773.145325 612.702881 663.374146 588.288879 892.752197 799.519958 488.124237 418.719696 708.237122 839.599304 638.825012 539.047546 775.215881 727.379028 578.540283 758.250061 671.092041 827.102417 581.477722 817.896851 759.145325 801.179199 722.298645 605.837341 673.566650 652.708801 696.293457 595.013672 792.052917 744.507751 948.925415 716.707764 664.025330 733.978882 882.689270 648.073975 823.961670 643.004028 623.641052 657.265747 595.149963 568.227539 576.657593 737.706177 761.544861 734.551147 638.759216 656.326416 899.295044 672.531128 674.073059 598.241577 624.484924 631.956909 789.848145 784.315369 798.369690 597.800110 451.671722 542.141785 647.510132 767.282898 706.466003 737.052795 939.146057 779.367615 651.960938 697.692078 719.624573 657.283142 694.821960 725.269043 575.465149 659.032959 589.621216 735.239075 602.450867 692.645935 756.424438 584.518311 856.854980 452.211517 623.064087 679.858398 709.386292 674.785156 806.715942 632.066101 634.451111 692.137390 719.912109 
convclip_12_param_0 1331.364990 1259.380127 552.139160 664.805481 588.480408 1268.510620 1153.701172 611.309998 1056.646240 545.903076 641.030945 1177.962158 868.852356 550.901062 410.103607 1092.746704 855.406189 1225.755005 69946.976562 1036.259155 2496.838379 888.395874 506.237335 1857.195435 7998.630371 1213.914795 799.798157 1433.892578 930.786499 1024.399292 418.247955 1469.646729 1568.582520 1371.174072 1588.832275 611.865601 1151.521240 1666.045532 359.041656 686.667297 576.688171 920.282532 493.302551 610.426025 401.799164 741.854614 3761.050293 537.912048 1566.806030 1063.100464 30689.853516 417.786346 1066.365112 719.565186 953.663269 1016.374268 430.362671 596.921387 1557.830322 1285.515381 1261.682129 923.199402 1302.830566 1510.520264 1376.227905 1334.830200 702.453430 1377.124146 933.966553 954.152161 856.337158 1707.727295 1711.354248 842.358582 1057.751343 1028.577393 1228.394531 1496.374512 984.678528 837.686462 1184.075439 484.391327 536.523071 972.276245 439.154449 1105.729980 781.723816 942.838867 554.403931 75731.468750 103129.578125 1152.427490 477.651184 1139.024048 1242.993774 276.994019 895.188721 1469.318604 662.128967 1287.202515 705.319275 618.827332 1014.866638 1997.156982 438.186371 1158.322021 1431.078735 508.984955 1275.089111 355.040100 2147.597900 775.648865 1439.245361 1804.620361 495.897339 1547.502808 1181.847412 67409.695312 609.423889 1386.963501 326.722076 1870.107666 1328.289429 380.070435 416.579407 1031.080933 1905.834351 711.370850 917.021545 1072.891235 1195.560181 1195.921021 1845.420532 1269.673218 423.091949 421.002197 747.742920 885.252686 2176.848389 558.426880 910.844421 1383.602783 772.262268 1748.514893 1377.054077 410.706635 726.083313 1213.226562 626.261719 7400.980469 551.188171 568.354065 731.904419 623.996887 1097.192383 982.830383 727.278931 1317.748413 912.550049 6768.559570 594.521912 2896.033936 897.693298 74262.898438 765.714355 1280.619507 823.838806 373.261261 1046.430786 924.764221 1194.822266 1211.957642 606.451355 2043.126221 1607.394287 853.894409 1127.317871 570.183350 965.351929 597.949219 933.724548 657.608215 512.745483 581.050964 1435.156372 1102.234863 409.680359 1199.741821 397.226532 364.488861 678.844116 1153.079834 1938.071533 515.316772 499.605713 458.427399 369.532440 1076.479248 826.260498 850.594910 1206.045044 1047.085938 1532.027344 582.999817 757.300049 672.580261 380.276764 1534.551392 1546.633179 1007.219543 656.052612 682.679810 1063.027832 1564.303711 818.739868 430.170258 1294.431274 6113.209473 786.079712 8197.077148 639.835083 1219.350220 1805.721313 1466.961670 572.291626 641.853638 449.605957 1471.495972 583.224426 6963.405273 1267.680054 366.063873 57372.816406 667.129150 1512.632324 96056.648438 713.948975 810.205505 1556.622314 635.096313 922.147095 1057.319824 1243.554810 1038.427368 429.189636 1053.532837 625.622803 1084.013184 949.340149 902.829285 822.148438 842.213806 879.270203 1016.958801 1320.390259 665.672668 777.670837 891.073853 1722.152100 927.489136 1593.456787 676.446411 734.826965 996.534180 711.976624 1130.660522 1183.133423 645.238525 834.555664 926.194763 959.356323 1366.989258 1236.563965 1302.991455 1053.976929 1542.569946 1021.941833 1386.604492 1167.495972 1161.701172 1167.496582 1455.615845 1658.647583 924.484863 605.770630 1383.709839 1205.120483 719.426819 909.934937 15287.877930 686.013611 1048.039307 736.248779 1038.999878 956.122131 1230.371704 1928.330322 599.302612 947.082092 1401.547485 948.516602 2181.600830 718.698547 839.234436 1830.326904 432.464783 1255.676514 1050.266968 660.805664 476.113922 1075.510254 963.011902 2148.296631 1885.182373 1485.733765 1388.175781 1160.966064 757.089355 839.243225 971.852966 349.087708 1796.434814 437.580078 340.828400 540.707764 1108.506470 1204.780640 673.098267 617.079712 458.965302 1122.124878 416.235474 1406.472046 775.130310 884.359802 905.331665 822.219727 973.446350 430.056824 700.264771 527.298645 775.852417 742.247070 1139.165894 654.510132 1140.479980 1037.163208 390.368774 874.948364 1187.678833 1236.390015 1090.524536 480.274963 1055.530518 1066.619629 1089.379150 1013.337341 805.346436 493.445984 729.341492 2047.116211 735.457642 18620.636719 1257.411743 1617.514038 356.367767 1212.187622 774.361084 1179.969238 47696.738281 672.185547 1452.027954 530.936340 1614.760742 1127.548340 1059.854980 952.959595 848.747131 676.899902 454.051025 565.067505 803.706543 795.704285 579.603882 1121.603760 986.461792 614.269165 1936.470947 854.285706 1172.451050 500.827240 950.967102 837.398926 787.242920 1132.594849 1407.736328 764.641602 6592.843750 1394.815552 464.731842 834.732971 1897.241211 903.968994 1366.943359 1216.015259 860.830688 403.109375 481.054688 393.694458 277.300446 791.560486 1275.460205 906.200134 1616.568359 613.950134 831.210449 1190.853271 781.893250 323.240295 1073.274292 1475.772949 503.568329 639.681885 1147.894165 511.567230 1571.984009 431.865082 1150.548340 2039.208740 1784.450562 1662.197754 427.936707 260.276703 280.528076 1061.834717 635.541870 1256.665405 13188.789062 769.076294 1068.473145 498.650909 1064.897949 504.267731 7446.758789 398.737793 1345.494873 866.224548 632.370911 575.402710 903.624023 926.061401 311.954803 632.767700 1599.042603 584.837585 497.070343 2060.455322 1112.557007 1206.664185 920.196960 987.891296 9838.082031 1576.655762 1018.541199 3048.828369 1277.419312 1265.447998 1117.777100 1759.406128 845.272583 1130.134277 385.748871 620.763489 1160.225708 687.442993 1520.863892 407.555969 1215.070557 359.644135 1453.227905 1315.749512 406.182953 386.393921 1282.434937 854.660095 1607.747803 1345.279663 767.000427 542.748535 11450.528320 956.387207 982.348328 1320.129883 3525.053711 1164.923950 1162.431885 1716.515381 2173.457520 473.195679 697.413879 548.094910 455.592773 628.567200 346.425507 3774.559814 726.500244 729.379578 1248.130127 253.050735 696.357239 567.296753 1157.273682 18402.218750 1527.442139 362.496582 743.025452 638.396790 566.760193 494.679657 927.569275 601.650452 1492.126709 1068.516357 8579.835938 1509.822632 893.898865 437.168823 1590.872070 1258.146973 711.789917 780.721436 1060.564331 1162.615845 6267.490234 999.692993 6434.564941 1221.621216 1475.699707 622.256409 768.453247 12562.030273 1469.785889 917.628052 995.239807 450.035126 1212.088013 781.365967 2444.222412 453.024475 975.141113 1881.562988 576.267334 1442.124634 1075.488159 850.746948 579.755737 927.967102 1628.222778 771.625122 1241.219482 915.471313 1167.416992 936.700867 779.491028 901.056885 673.492188 526.994324 15339.707031 349.825592 975.325867 760.963135 4124.154785 844.376526 1348.498779 975.008911 1514.697632 
convdwclip_11_param_0 56.116989 33.491058 149.620682 300.563019 267.795593 30.069271 77.281914 81.907303 136.537537 249.493027 98.586784 95.797806 178.278122 131.946777 187.339691 69.817009 146.767303 96.452042 14.322601 61.985039 91.770294 77.531570 140.397308 38.025398 56.750114 86.986320 286.877075 40.672459 176.585846 75.451134 255.659134 112.733772 84.849945 162.583389 65.515350 225.343582 125.927826 30.168997 234.035263 100.474297 200.759644 48.306248 135.411499 187.204895 366.268890 116.623665 36.323891 227.698135 58.576710 130.444550 10.902354 238.662766 36.797562 260.459564 396.734192 59.284004 107.174545 193.303925 105.509171 48.037231 176.833633 78.292755 54.449883 87.923759 38.210739 57.436859 132.426880 84.005493 73.187988 55.120987 119.445641 104.425774 28.083733 91.710388 57.491188 53.575871 84.299141 49.477089 109.199974 81.695251 53.804798 156.279358 279.637970 173.345901 226.428589 78.820023 115.641373 71.975845 240.961075 965.314941 520.070007 45.254490 78.195198 87.308899 30.939936 303.939087 211.498535 169.444168 93.258011 34.001064 148.413727 97.470863 28.199297 44.485435 325.197449 52.257965 33.455730 193.567062 138.519760 332.662323 57.061752 113.417290 89.295525 52.551350 217.980240 39.335606 53.526573 1002.739990 166.181610 174.363754 243.492996 203.149063 53.739609 318.433838 201.702484 107.615318 45.942955 156.162811 63.362309 103.538284 74.927414 13.464576 359.286926 27.316769 93.988449 430.016510 176.555222 45.310368 11.226419 168.213333 138.281326 121.453522 117.986343 119.421646 73.813622 277.321472 77.165535 61.223980 110.038475 28.789820 436.428558 137.457352 134.334244 231.360275 41.494659 31.356005 86.451385 62.942993 77.312225 12.762605 158.603500 42.408237 162.200424 1166.210571 84.380875 87.663155 61.378605 207.184952 84.437500 116.854897 65.425331 61.999165 205.492416 48.000324 150.709061 112.334953 47.576538 236.003036 171.655884 277.883545 124.765190 259.369232 209.633408 83.215042 55.845394 59.823341 361.614319 51.586243 330.639099 139.633362 109.856651 41.461811 75.688522 147.918015 218.317093 231.503479 258.285309 36.558189 137.868240 54.109165 132.299362 115.603668 15.244057 144.328323 105.556458 127.634857 236.780090 67.139549 89.481468 64.140465 221.883942 64.379318 118.497505 175.347931 305.187408 187.954178 1025.197266 18.182636 182.710220 8.494955 185.155548 79.094322 32.952530 101.630333 262.145447 224.141220 103.627983 28.615273 261.889130 7.980905 29.307795 255.481277 1121.464233 78.711906 35.875954 2766.209717 197.882446 67.701790 48.642422 199.459396 94.225410 180.164246 43.727779 68.388855 355.830444 92.399345 196.289459 85.378975 71.565422 135.594604 68.393219 145.389786 67.778725 56.475330 46.411903 275.141083 73.121254 73.965034 48.515385 81.084427 147.866898 239.114792 98.837593 75.015663 126.776779 130.342102 64.838921 106.934097 199.491135 216.764511 169.489227 73.339973 95.033859 49.943295 87.807083 158.486938 165.939178 40.010605 194.454987 26.489523 160.007019 34.396835 90.556732 99.421471 251.681625 157.202286 141.813980 142.210983 83.447075 14.494048 91.084854 71.863441 164.850906 67.404984 72.738449 50.161648 107.025421 170.906204 143.310516 76.448990 132.040939 109.780930 161.737793 180.078262 157.903870 157.994675 47.164028 129.709534 222.634048 133.943970 62.843815 162.774185 106.332886 120.560471 37.902233 137.173294 57.558353 146.737610 96.543015 55.313099 202.563660 33.210659 233.000381 152.423904 171.130402 96.690140 74.185463 146.031342 126.823357 125.709358 51.961277 279.010864 708.220459 65.113724 173.522629 126.564857 66.310677 103.279686 79.911140 283.521973 117.072372 104.584038 156.247452 59.824841 151.788147 108.912354 173.953476 97.650589 121.135010 37.301105 172.212372 69.009155 134.557495 98.197372 93.079079 139.210037 143.047836 93.704086 328.020172 134.185257 81.858231 154.115448 239.835602 72.405205 69.415192 277.977570 85.063606 130.425735 64.582825 645.155090 178.310120 108.331406 67.426018 39.698402 110.541191 72.515404 73.020752 77.927078 115.901573 212.770950 314.097229 151.598724 120.787155 141.350494 57.250393 121.035454 146.204758 81.841621 62.540291 42.629925 190.479614 38.761162 74.089081 73.284859 72.042328 155.069824 73.774429 9.436908 25.854288 287.942444 103.790527 28.629520 78.855988 45.578644 93.517029 127.421173 259.611572 167.106613 182.746719 275.015228 184.691605 94.413155 71.288406 102.201202 246.756592 220.055878 95.490799 60.977413 329.152863 135.590652 19.591167 207.248459 93.389366 46.081898 273.681244 56.275322 402.937897 34.329620 76.010551 57.408489 68.923645 270.126556 268.071716 361.914948 88.577042 191.575043 76.007568 29.718647 145.614929 94.420967 109.991936 145.978958 197.617935 17.003525 237.641968 90.134903 47.934982 198.433121 122.777748 147.179123 204.171677 171.728592 63.639080 107.551178 284.895264 358.363220 302.137573 35.627232 99.736237 115.766472 125.517174 9.608168 161.969193 49.478241 29.368696 107.270760 70.190620 67.146408 29.706905 89.809341 227.694672 148.632904 212.942245 63.074734 170.977814 171.391510 137.143372 93.776360 405.101410 56.749046 40.352962 164.473343 152.892761 114.686951 121.479225 35.923904 104.262535 110.968407 149.340347 13.600389 90.006317 170.197342 91.369255 42.110588 49.646324 122.143738 45.006508 441.643494 243.599533 232.885574 196.079590 307.639343 91.624146 287.832153 102.752213 107.429413 141.538986 89.622902 277.000214 114.086731 316.245087 83.511894 9.473298 213.056641 299.104401 86.644005 286.653870 219.111862 209.071548 134.663712 400.672241 101.269882 72.190025 25.983517 75.300980 195.645676 131.862793 116.299644 54.713314 171.635605 98.412140 94.565971 59.341450 18.031179 74.830399 34.710640 47.958519 85.943451 111.914642 87.059647 9.638231 141.626160 57.255039 168.270340 182.722885 45.251389 108.822121 39.399544 98.683090 224.562424 80.142723 195.590393 103.181526 53.189392 72.873985 291.464233 159.405930 70.238152 183.672699 64.502014 114.967941 29.963312 145.566956 140.522049 49.572651 90.486748 156.353256 7.960639 359.454681 55.750561 138.613922 56.446339 154.597076 33.331158 152.628860 39.445286 
conv_23_param_0 478.986481 525.370911 662.407532 1052.237427 667.171936 691.591003 680.999329 645.535034 747.515442 552.965698 604.685913 608.802246 735.914185 1114.301270 572.372131 796.046814 585.224243 1017.683777 554.621277 769.578552 764.936340 616.866089 838.247070 433.187988 598.532227 644.117310 604.637390 810.305969 1051.671509 1031.057007 538.300598 749.302429 695.426147 986.200867 822.638062 887.921143 675.372925 551.545105 548.846375 575.222839 2441.177979 737.264587 533.821655 465.027039 783.853333 603.604614 517.935669 599.153992 686.283813 600.332886 854.917175 686.941223 701.869324 658.060059 371.388306 552.809204 704.021912 927.839600 622.332703 713.328735 619.242249 519.430298 739.719910 658.477905 1525.235962 555.250122 638.148376 515.850525 532.757568 649.542053 424.296539 465.835815 597.245911 514.388916 588.792358 800.609985 768.682495 641.842102 1205.277466 947.959778 573.669189 735.193542 517.999146 694.965759 496.408844 679.377014 531.928955 772.914368 559.376404 639.793579 480.888947 912.952942 507.058807 543.524780 467.277588 499.836426 
convclip_13_param_0 2054.747559 1845.290161 1667.083496 812.455261 1619.910889 1543.803467 901.899231 479.989960 1864.179199 1696.642822 938.068054 2687.171143 1302.761719 1277.584229 1319.367676 1684.568115 1221.849243 1605.415039 1159.779907 1331.364502 1913.110229 1025.558105 1244.484619 1591.367920 1376.345581 165573.078125 1479.769775 1018.108765 617.308044 656.161255 1359.042847 1003.334351 1566.987183 1155.684448 1215.191284 626.846252 842.074951 826.900757 857.289307 1386.309204 1688.568359 2259.278076 1984.464355 1273.542358 1930.479248 1225.735718 1357.981079 403.601501 1709.545410 1186.388794 1021.084717 1516.655396 933.043274 1609.279419 1698.097046 854.285706 1071.647217 1401.431152 19857.855469 1266.645020 906.888245 1019.999878 1803.170776 1399.104248 858.888916 1267.237671 1273.243164 1534.596436 1750.200439 1463.560913 610.147217 1932.739136 1333.027466 1942.548462 9009.269531 1354.182007 1633.893555 1749.400024 1415.722290 1234.204102 2102.027100 2314.604004 2592.443604 2189.622559 2338.720215 635.363159 535.580872 807.098938 1212.559570 1947.813721 989.486816 477.503693 1183.439697 1114.950806 1422.206299 4832.969727 849.259521 1447.228760 1673.329468 1561.888550 1726.475830 1429.832642 1031.788208 921.969238 2602.352539 1380.273315 1469.372559 659.800720 2176.509521 859.510437 2154.841797 572.786743 15056.176758 737.229370 930.124023 1370.925415 895.942078 956.471497 1749.446655 1860.526001 1101.738403 1357.791016 71996.796875 1455.515381 534.380493 1334.007690 368.029724 2186.125977 605.218384 600.750000 1961.902832 1605.391724 98903.687500 2631.948730 1500.909546 1540.907959 783.211243 1653.967041 469.671631 1017.217651 492.548828 1641.844849 1440.215698 7896.589844 1386.471191 1500.597534 1569.683350 1506.329956 2297.640381 2261.949463 661.581299 1173.843872 599.136047 695.181885 1693.618774 1060.496704 603.615356 1532.643311 1666.313477 798.502563 1190.135742 1505.211914 639.326233 1657.316162 778.881226 567.179993 1955.018066 15905.442383 3009.636719 432.845062 1775.560059 1367.226807 1190.114380 1888.096680 671.778015 6790.152832 542.662781 25688.042969 758.934082 1272.702026 749.200989 1696.623413 1509.039917 1184.289917 1250.934570 1208.894531 2508.327393 1079.154175 1734.757935 1259.698608 665.836182 1259.450317 953.144226 1438.814575 1073.121338 2033.610718 1193.615234 1039.155762 2095.544922 595.387146 1556.308105 11252.604492 1368.489502 1319.340820 7915.941895 2380.887939 1308.273682 844.450195 1656.573120 994.718018 804.186279 1426.023315 570.554626 1683.340088 1716.296387 523.030273 1275.993164 1276.383789 1907.548096 1122.682617 1534.295288 950.455627 914.367676 1212.813965 1216.614746 869.326782 1797.371948 836.062134 1177.194092 1950.562500 990.925171 1467.740234 1131.449951 1192.981201 808.478882 1076.548706 1171.083374 1131.224243 1094.243408 2345.297119 756.677612 610.868958 1703.063599 605.342590 1730.608521 1823.101196 2158.440186 722.258667 972.928406 1386.276001 2017.053101 1450.886597 1742.704346 813.922546 1753.389282 1132.713257 1273.557251 2504.871094 1598.221802 708.266052 1811.872192 1617.477539 1369.068359 483.181610 1356.955322 1600.040527 1367.592651 2407.082031 955.027588 898.814453 973.234863 894.322266 1035.535522 1316.516235 912.606140 1636.103638 1827.803467 954.081360 1602.573975 928.661133 157829.906250 99314.226562 1521.927856 916.229736 1545.025635 752.698364 1394.991455 2327.586182 1052.014160 1424.655396 718.747314 2884.766846 1876.917236 824.544250 921.405212 4227.279785 1927.458130 845.344482 923.544495 1110.160889 2199.750000 532.837036 743.671631 766.261353 2179.452148 980.374390 788.851501 1786.717285 772.294189 1296.413818 1853.786621 1866.401001 878.038330 1174.829346 1528.716187 919.079346 1062.403687 1113.113892 1445.956665 1797.119629 1857.534058 1636.316772 2011.902832 2020.254761 1365.079956 1615.094116 561.228149 1307.198608 461.363525 643.484131 1891.981201 1018.432556 2222.528076 534.489685 633.929565 1094.776733 1461.472412 1372.988770 1614.419189 2268.937988 691.311462 1523.058105 1074.495239 479.043274 1900.279053 1955.734863 787.655273 1448.226562 1102.012451 1229.248779 1892.382202 1491.153076 1157.218140 2287.499023 1190.356934 1239.506958 1594.759888 549.550110 1140.340820 1195.856567 1474.546265 1482.575806 1133.187256 1487.440308 1122.266724 2021.544556 1597.380615 2028.618286 734.089172 2004.986938 644.232422 1160.650146 1689.417847 684.236511 1291.896118 2071.677490 1176.457520 1559.256348 744.716614 1248.824219 1677.442749 1862.314941 1033.510864 49186.027344 883.941956 1085.816406 1062.137085 9696.272461 1684.552856 1450.862305 1798.687744 1610.849731 1371.525269 1624.760498 728.001953 1176.367676 2154.165039 2736.287354 1224.500366 1633.520142 28987.224609 10357.263672 555.520752 1176.603149 1732.318848 1085.367676 1342.252563 2225.458984 1135.744263 1356.680786 17219.107422 578.206970 1957.606079 633.282288 1732.479370 1633.095825 1435.959106 1014.344971 1195.118286 1622.231201 1017.747742 11501.723633 705.978760 499.128723 1013.556885 1047.857178 1776.460693 715.004761 359.884888 1915.393433 845.232910 1932.491333 1378.219604 1676.866943 1801.187500 1023.585571 427.466217 934.211853 1582.998169 972.587585 1491.454346 2122.587158 1624.359375 575.635864 1791.827271 750.252380 1512.906860 1015.213135 1506.994995 791.234314 1503.247681 1902.514282 1818.680664 1127.035400 1569.999634 1674.392700 783.466675 1058.492920 1501.294067 992.711670 1505.152222 1937.333008 1594.289307 1384.856812 782.494629 1640.703735 1185.655396 1952.327148 1531.927979 2242.463623 2066.043701 1113.664917 882.883667 1541.275146 1720.632568 722.303345 1350.662476 829.693359 835.911987 1155.918579 1818.491455 802.515442 490.744507 1451.509155 1167.950806 1427.907837 1096.627319 539.547974 918.589417 688.337524 2063.975098 714.574646 1391.414673 1506.631958 1300.630981 1302.635620 812.230774 1769.861206 1673.235840 1691.434814 1841.761841 1594.242920 850.591248 979.759460 1278.936646 1031.400391 1145.440674 1919.865845 1126.844238 1186.986694 1977.456299 1368.915771 1472.045410 2007.176758 1238.823364 1866.032349 1386.819214 1565.621826 1316.486694 652.132935 2186.720703 2177.376953 1437.189575 1501.763550 1517.013916 1294.382568 1046.500488 1147.002197 1395.092285 1558.524536 1727.660645 584.021301 1194.394775 1549.108276 148824.218750 1256.625488 667.207031 937.402039 837.354492 1108.612061 1898.407593 1304.985352 1949.610718 1855.418213 84209.968750 1317.610352 576.024048 1622.289551 1410.779663 1310.672363 1045.641357 956.906189 884.879761 1030.258423 1169.019409 882.051392 919.488953 805.554443 1286.993774 1825.882202 2589.951904 1420.853638 2491.516602 1838.837646 740.469177 1839.082397 1088.263672 930.088074 1755.060913 1401.484009 1378.488892 952.946106 764.031189 2515.180908 1426.338257 1252.615479 
convdwclip_12_param_0 202.509125 77.377579 33.072803 307.678284 94.598816 163.748566 165.836746 421.620880 75.118790 48.415508 178.824127 122.864250 99.460823 76.097107 101.652657 34.242580 47.988178 91.344528 137.757996 36.966011 44.035213 130.439209 85.021278 44.752182 39.808132 2104.511475 60.712070 123.253304 260.038177 181.054153 140.642059 77.650040 115.057159 69.333076 61.454117 125.170372 139.406891 135.848801 76.521019 118.130768 174.982712 136.521088 77.999649 55.060799 32.619911 123.882042 98.864937 411.190125 42.034721 88.189224 35.918865 28.016760 146.037964 788.947327 66.618637 80.018852 184.671616 44.121140 28.000317 42.961239 241.258408 47.964073 72.650688 80.067627 107.444984 44.187130 60.328735 65.257408 164.524841 73.776161 204.532913 35.441036 44.652214 19.483459 45.690876 74.833824 98.488045 124.988365 60.353146 51.136875 36.753407 345.280060 56.114410 50.531784 54.513096 242.950378 352.803589 122.982651 139.320023 50.764858 151.334885 298.275330 97.970703 62.754948 48.712471 59.226498 283.033386 86.622681 57.404789 99.898064 121.959671 53.331196 87.230988 105.975151 116.431114 95.931992 172.311554 175.262085 38.743778 67.802017 50.644142 384.499878 14.477803 145.556198 104.255913 89.970825 255.169678 175.561462 22.102705 59.697285 58.999718 67.280914 916.422913 134.212753 136.466248 107.913910 216.968796 36.196743 194.839478 256.432129 52.811047 172.587433 690.312622 52.311054 45.281254 84.988281 181.371017 50.473034 478.882263 306.838348 99.153366 52.138519 46.092617 2.257788 89.721436 19.161392 115.391876 137.938873 113.336029 41.494400 361.232452 116.322983 282.987946 261.378174 79.702499 229.759171 394.351807 60.487106 102.844223 50.714767 119.071465 189.982315 221.847229 77.409569 176.580612 428.587799 31.747059 11.554365 122.699478 381.504883 108.078255 116.616760 126.766777 39.718040 280.153687 34.183414 261.300446 6.628529 247.152985 66.657280 233.966003 16.867212 82.801430 133.050003 111.255402 87.939278 37.207451 103.690155 106.313507 91.820808 284.703522 53.909256 31.116051 96.792618 271.531738 52.741882 161.408371 102.404205 31.223043 107.680779 33.593422 21.162395 138.116730 27.426682 8.823941 127.122467 53.403187 157.140182 50.078350 151.165955 185.235046 160.418259 352.275330 56.959293 49.893631 361.605499 60.154789 125.211990 142.501282 196.842255 110.874886 115.162888 235.506348 99.549736 150.616669 150.154587 45.167461 123.381668 27.986816 23.787327 226.290634 123.676964 30.780972 95.939545 222.301682 160.918518 148.844971 185.586456 43.366276 38.502728 297.731323 276.376984 48.391293 417.361206 35.676331 53.925491 57.379982 113.758476 144.717270 147.436920 21.826906 109.148117 70.159332 162.605392 63.176540 124.051956 66.778107 35.036232 37.355286 274.279144 43.153942 33.785736 75.795471 262.459381 135.639206 200.619858 128.968826 106.066055 175.541458 116.714523 182.573822 93.939911 81.887604 110.524460 223.341797 65.890953 35.343025 201.028152 72.143204 205.007492 2957.608887 584.379456 181.513931 211.362625 163.463043 140.956619 103.006386 164.067993 74.736504 153.747665 198.465851 75.880539 27.424261 221.596848 243.418121 64.733688 37.529446 142.780441 201.107773 184.691452 39.381969 192.955841 336.971985 67.249565 34.689358 100.821457 233.645721 161.012360 164.737350 36.757118 238.342056 19.262016 78.890610 86.242783 169.011444 75.942360 126.692772 126.043098 35.206223 73.199760 108.463463 143.908844 64.841217 45.764824 56.804283 37.418652 294.138367 134.927368 387.376251 159.036621 89.876541 49.185764 51.038544 241.770767 320.620941 200.583298 67.468452 141.274384 174.482025 40.819794 68.607353 110.376396 194.096802 412.888550 80.052185 59.485470 282.901886 41.451824 191.691574 160.293579 94.228500 161.902985 62.888649 31.236416 208.762680 151.782974 65.774483 125.640686 190.224609 149.575821 20.785244 71.376953 100.121910 67.644379 156.520889 100.839066 73.345367 57.776035 162.932602 100.270767 158.847000 70.789444 99.319595 271.357635 102.537361 128.627487 59.001041 63.458054 207.883194 64.317673 44.935349 50.479271 148.040009 12.119662 266.936066 155.898483 259.028137 14.106939 56.168411 86.561615 223.631622 69.244896 35.333916 141.022064 160.662003 77.158119 111.214401 21.233505 44.522217 64.373337 30.958101 12.708885 152.505249 81.714516 136.437332 144.279373 187.584717 85.968521 198.471771 84.050972 16.681059 262.185944 142.716156 318.393860 81.973907 40.713734 79.344139 149.343140 205.410339 31.238501 134.409958 30.483599 223.949203 347.888824 166.355408 72.589569 7.471751 144.824936 379.799561 61.663620 123.202499 37.911804 100.731392 63.849758 62.694641 93.926651 351.165009 103.216797 41.450005 145.005234 149.115906 24.244654 44.284233 117.980621 65.206017 191.144211 251.045547 96.819405 54.842232 323.313782 128.242554 56.847393 49.361008 91.936256 49.506702 76.870323 146.120773 137.165024 104.848106 250.828247 81.626144 56.521507 119.527199 53.986115 204.767609 170.087967 91.851913 37.669342 75.362297 37.284313 136.860672 128.184113 178.200043 63.127155 198.340805 285.875336 109.980438 218.235870 253.552261 90.273705 46.357635 156.094894 468.815948 113.733688 115.180939 80.146294 103.739258 259.504730 71.735443 105.929993 30.267353 194.072662 59.731567 49.528309 51.236320 96.294609 167.721619 56.643688 122.594627 27.450491 126.484642 121.975616 170.450165 163.043106 33.402924 69.182503 145.206909 59.904564 72.733322 148.539017 32.457111 120.413414 66.378777 45.602623 39.004841 24.613577 50.085583 39.849834 100.205116 85.447456 124.619141 24.745754 78.735207 104.344902 59.299744 77.899879 281.043365 93.225616 49.759472 135.690247 34.883301 373.461731 107.365547 91.051407 1706.406128 106.916084 327.225098 97.125336 209.896759 150.143753 29.210295 64.116837 96.177307 53.060360 1646.160156 57.384895 351.600281 145.265961 179.681824 109.284546 137.327057 220.042450 133.733887 84.313980 92.801018 111.401657 250.516235 278.024902 36.694973 51.009594 9.966836 162.174271 90.180740 53.346359 104.591942 22.937998 78.215881 212.616501 28.408836 47.820263 64.765640 113.404785 149.747925 128.993881 84.600243 96.003654 
conv_25_param_0 432.708405 335.911591 493.596405 802.056030 417.631287 296.570312 733.612854 402.871918 638.942688 392.113251 539.760742 408.478638 450.922363 652.447571 379.412994 309.171143 314.335541 560.441345 343.875031 387.846954 434.986298 299.573883 583.694336 415.572327 550.477661 410.761871 655.579163 379.374573 741.726379 491.950897 435.157715 430.624695 366.721893 367.673096 627.960449 753.010193 347.111420 353.121399 371.378418 362.440582 1550.173584 431.143707 361.265076 418.781769 437.494080 640.716553 412.817444 415.680023 447.105377 467.924927 755.422119 396.849731 601.928955 284.979248 276.739899 343.304169 439.114471 840.180664 375.780029 401.904541 503.700836 450.499420 467.489471 522.931885 737.103210 595.506531 377.082825 613.915710 572.105042 419.095245 403.992035 287.973663 609.525940 480.593811 484.062683 332.427368 369.569672 336.931641 754.200378 1006.826660 405.806946 258.435181 331.241150 431.271179 461.091461 384.506805 265.486664 417.822021 560.862488 518.296936 341.552429 571.320923 388.763641 587.041382 337.877533 378.565948 
convclip_14_param_0 3700.228027 752.639587 1414.115479 1438.523560 2057.522461 839.996765 2249.300293 1953.941650 2065.748291 2067.893311 2097.903320 2131.475586 2681.354492 950.845825 1786.791260 2264.522705 2390.197754 1998.790039 2357.585449 1992.035400 1852.723389 1658.723389 1014.666321 1855.842529 2121.518311 1964.783691 2517.559570 1726.382080 1057.951416 2472.763672 2379.732910 821.064575 1735.816040 1796.629150 2865.846680 798.736328 2144.604736 1727.261841 1432.262939 1855.656982 2882.994141 1587.980347 1399.008057 1810.412964 1476.696289 1609.630737 2276.532715 1415.175781 1593.510498 2513.012695 2693.467041 1708.005737 1793.101929 1611.850830 1748.422363 1888.723022 2314.155518 2527.336426 2266.263184 1844.393799 2064.833008 1698.425537 2269.864014 1778.770264 2951.855225 1704.690430 1727.244751 712.755432 2083.465332 1768.569458 1236.516724 1546.121826 1608.904053 808.376404 2506.155273 2570.333252 2104.799561 1852.970337 1140.502441 2043.378906 2057.774170 1832.499268 2049.615234 5285.248535 1997.868408 2036.711792 1932.492432 1986.268433 1795.080811 2236.703125 1723.062744 1336.574463 2013.875977 1917.770630 1877.789795 1351.646118 2271.919189 2052.017334 1522.712646 2185.460205 1628.119873 1833.429199 2095.395264 1689.832520 1970.988159 3132.775146 1238.765747 1099.462769 2454.065186 2565.591064 1665.203613 1721.980347 2623.726807 1511.295166 1749.405396 2585.594727 1738.605103 2114.902588 2231.367432 2147.640625 1432.850708 3225.990723 1718.300415 2472.825439 1549.052246 1196.647949 1896.304688 718.210999 1734.512695 2300.250977 2095.826172 2320.489502 2438.664551 2223.078613 2259.885498 2723.725342 1953.711426 1922.983398 2559.550049 1887.352783 2126.467285 2006.391235 1575.360474 2886.689941 1553.231323 2044.819702 2711.527832 2316.964111 2240.764893 1549.621704 2286.195801 662.067261 1835.310303 2231.523682 895.431152 1633.282227 2576.901367 1906.581543 1269.251709 2306.333496 2025.488892 1997.723267 2029.509033 918.260437 1866.372314 1351.259644 2153.311523 1462.974731 1651.753662 1969.343384 2319.166504 1265.963501 986.696167 2007.495605 817.104370 1815.013062 1358.581665 3185.574951 683.600159 1879.456909 11636.787109 739.197388 2071.420654 2484.356201 1943.688599 2298.762695 3024.585693 2221.918457 1945.600342 2492.056885 1056.563477 2759.559326 1967.108398 1793.453369 1555.765381 2119.330322 1675.765747 1015.364807 2215.168945 1497.437866 1304.835083 1386.535034 2433.085693 1576.383301 2265.695312 2096.384766 1173.110962 2086.455322 1015.619934 1819.688110 1722.071899 1383.806030 1061.711182 2842.508545 1655.994873 1554.791138 2395.316895 1431.603394 2185.850830 2051.992676 842.181885 2190.718506 1304.802856 2267.328369 2018.376465 1799.093262 1744.443970 1671.613770 2013.675415 902.887878 1830.837402 2378.887939 2061.657715 1506.882202 1233.944336 1050.105347 1889.616577 1710.268433 941.945740 1003.643311 1701.822998 1801.567505 1300.944702 1977.738037 2135.762451 2571.374756 756.671204 2445.726807 2992.145020 2156.436035 3334.674316 1312.002319 1840.775391 1392.900635 1606.811279 3244.481201 2297.910889 1259.658081 2449.010986 1828.807617 1516.544800 613.129395 2415.362061 2008.996704 4898.017578 1726.113770 1506.594116 3576.748047 2444.171631 2013.805786 1444.902832 2143.126221 1747.731079 1827.301880 2230.673096 1916.541748 1715.656494 1960.628540 1282.207031 1573.564819 1924.278931 1712.429321 1669.411011 1911.308105 1127.673340 1947.572754 1625.020264 1898.285156 2345.416260 1992.873047 1383.166260 1705.141113 1639.246460 1751.757690 2512.754150 2141.606201 2220.899414 3566.598389 2472.832275 722.433838 1824.240967 1990.953735 739.070496 1639.743042 186611.656250 1672.939087 2072.326172 2232.185547 4008.705566 1607.938477 2201.594727 1933.518433 1817.804688 1891.190308 1704.982056 2344.765625 2115.031738 1930.753540 1604.031616 764.867798 2727.958252 2220.252930 890.361206 2055.170410 1942.196533 2534.517090 1972.612915 1952.066895 1948.308228 1712.510376 1821.369141 2042.792725 2179.001221 2195.057617 4012.883545 2060.146240 2039.604126 1526.098999 1789.103882 1138.394653 1448.726440 1076.718628 800.767761 2044.207886 2580.313477 2035.331665 1369.363647 2267.140625 2254.224609 2198.520020 1627.458496 934.321594 1211.926880 2090.098877 1992.959839 2162.770752 1317.256592 1624.531006 1094.470825 977.318115 839.016968 677.233398 1192.532104 1977.968628 823.617249 2029.854126 2057.562012 1611.916504 2095.329102 1264.348145 3593.654785 1446.703613 2336.614502 1074.763794 2455.730957 1056.452637 2179.673828 2280.823242 2211.075684 2264.452148 1852.077393 2732.896973 2827.334717 1472.799561 1691.027344 2143.696777 1969.510376 2096.237793 1706.505249 2167.026123 1870.833984 2863.072510 1966.926147 2457.796875 2387.445801 1747.580811 2503.247314 937.388733 2070.975586 2075.414062 1858.819824 2351.062988 7649.933105 2231.934814 2282.725830 2116.881592 1063.741333 1645.919189 2187.615723 1567.469604 1442.370483 1281.759399 1529.960449 1812.517456 856.247742 2042.075806 1403.629883 2053.909180 2575.094238 2041.647583 1155.293091 690.151794 1031.683960 8518.906250 2284.107910 2165.405273 1606.982178 1798.314575 1500.663818 2036.914795 1566.596069 9835.004883 688.069092 1944.184082 1733.283691 1829.896362 1988.845825 1786.407471 916.074402 1767.762451 2121.798828 3657.759033 875.282837 1701.558838 1667.446777 3276.614258 1570.308960 2037.327881 2259.207520 1210.721313 1510.348145 764.094543 1439.206909 2536.871094 1331.581665 2537.472900 1488.456055 3100.421631 2055.847168 1075.006836 816.224243 1253.194580 1728.884644 1454.517822 1504.340942 1314.651489 1878.476562 2030.474121 2096.919434 621.949707 2457.401611 2029.089111 2016.479858 808.120483 1804.470703 1710.824707 2066.623047 2197.666992 1772.669312 1630.309692 706.911438 2301.536865 1877.309937 2126.218506 1557.078979 1997.749512 2344.910889 2206.398682 1592.080322 2083.779053 2249.525635 1793.963989 1459.805176 1728.500610 2217.283936 2318.200684 2520.375244 1991.416504 1693.081177 1371.787720 1691.642700 1813.191895 1391.250488 1951.092285 2912.756592 1576.104980 1962.468262 1659.254272 4541.079102 1529.213623 2485.658936 2324.776855 3372.937744 1475.799561 1260.115967 881.616943 1680.587646 630.584167 1233.070557 1445.347290 1815.466797 2083.535156 2066.305908 1922.364014 1455.442627 1879.354126 2477.656982 1764.205566 2327.838623 1647.408813 2052.124512 2336.484619 1539.897461 1753.878540 1496.592529 1233.402100 2796.185791 2193.792725 2191.003906 2241.831299 2026.836670 868.023376 2024.719238 107329.156250 2121.710449 1746.603027 1751.203491 4112.040527 980.123169 1939.635132 2090.642578 1638.689209 2300.026611 1814.553223 2335.979248 1219.274902 2542.000732 1719.206299 1164.451538 1995.772949 3208.453125 963.177185 2774.115479 587.745056 1636.252075 1544.250610 2324.614502 2770.125732 1868.188721 2014.216675 2415.817627 2176.653320 1535.679199 1790.096680 1552.043823 2099.780762 
